#ifdef __has_attribute
#define HAVE_ATTRIBUTE(x) __has_attribute(x)
#else
#define HAVE_ATTRIBUTE(x) 0
#endif
#if HAVE_ATTRIBUTE(aligned) || (defined(__GNUC__) && !defined(__clang__))
#define DATA_ALIGN_ATTRIBUTE __attribute__((aligned(4)))
#else
#define DATA_ALIGN_ATTRIBUTE
#endif

const unsigned char wine_model[] DATA_ALIGN_ATTRIBUTE = {
	0x1c, 0x00, 0x00, 0x00, 0x54, 0x46, 0x4c, 0x33, 0x14, 0x00, 0x20, 0x00, 
	0x1c, 0x00, 0x18, 0x00, 0x14, 0x00, 0x10, 0x00, 0x0c, 0x00, 0x00, 0x00, 
	0x08, 0x00, 0x04, 0x00, 0x14, 0x00, 0x00, 0x00, 0x1c, 0x00, 0x00, 0x00, 
	0x90, 0x00, 0x00, 0x00, 0xe8, 0x00, 0x00, 0x00, 0x28, 0x37, 0x00, 0x00, 
	0x38, 0x37, 0x00, 0x00, 0xf4, 0x3c, 0x00, 0x00, 0x03, 0x00, 0x00, 0x00, 
	0x01, 0x00, 0x00, 0x00, 0x10, 0x00, 0x00, 0x00, 0x00, 0x00, 0x0a, 0x00, 
	0x10, 0x00, 0x0c, 0x00, 0x08, 0x00, 0x04, 0x00, 0x0a, 0x00, 0x00, 0x00, 
	0x0c, 0x00, 0x00, 0x00, 0x1c, 0x00, 0x00, 0x00, 0x38, 0x00, 0x00, 0x00, 
	0x0f, 0x00, 0x00, 0x00, 0x73, 0x65, 0x72, 0x76, 0x69, 0x6e, 0x67, 0x5f, 
	0x64, 0x65, 0x66, 0x61, 0x75, 0x6c, 0x74, 0x00, 0x01, 0x00, 0x00, 0x00, 
	0x04, 0x00, 0x00, 0x00, 0x98, 0xff, 0xff, 0xff, 0x0a, 0x00, 0x00, 0x00, 
	0x04, 0x00, 0x00, 0x00, 0x07, 0x00, 0x00, 0x00, 0x64, 0x65, 0x6e, 0x73, 
	0x65, 0x5f, 0x32, 0x00, 0x01, 0x00, 0x00, 0x00, 0x04, 0x00, 0x00, 0x00, 
	0xba, 0xc8, 0xff, 0xff, 0x04, 0x00, 0x00, 0x00, 0x0b, 0x00, 0x00, 0x00, 
	0x64, 0x65, 0x6e, 0x73, 0x65, 0x5f, 0x69, 0x6e, 0x70, 0x75, 0x74, 0x00, 
	0x02, 0x00, 0x00, 0x00, 0x34, 0x00, 0x00, 0x00, 0x04, 0x00, 0x00, 0x00, 
	0xdc, 0xff, 0xff, 0xff, 0x0d, 0x00, 0x00, 0x00, 0x04, 0x00, 0x00, 0x00, 
	0x13, 0x00, 0x00, 0x00, 0x43, 0x4f, 0x4e, 0x56, 0x45, 0x52, 0x53, 0x49, 
	0x4f, 0x4e, 0x5f, 0x4d, 0x45, 0x54, 0x41, 0x44, 0x41, 0x54, 0x41, 0x00, 
	0x08, 0x00, 0x0c, 0x00, 0x08, 0x00, 0x04, 0x00, 0x08, 0x00, 0x00, 0x00, 
	0x0c, 0x00, 0x00, 0x00, 0x04, 0x00, 0x00, 0x00, 0x13, 0x00, 0x00, 0x00, 
	0x6d, 0x69, 0x6e, 0x5f, 0x72, 0x75, 0x6e, 0x74, 0x69, 0x6d, 0x65, 0x5f, 
	0x76, 0x65, 0x72, 0x73, 0x69, 0x6f, 0x6e, 0x00, 0x0e, 0x00, 0x00, 0x00, 
	0x3c, 0x36, 0x00, 0x00, 0x34, 0x36, 0x00, 0x00, 0x5c, 0x35, 0x00, 0x00, 
	0x40, 0x35, 0x00, 0x00, 0x68, 0x34, 0x00, 0x00, 0x30, 0x2a, 0x00, 0x00, 
	0x10, 0x03, 0x00, 0x00, 0xa8, 0x00, 0x00, 0x00, 0xa0, 0x00, 0x00, 0x00, 
	0x98, 0x00, 0x00, 0x00, 0x90, 0x00, 0x00, 0x00, 0x88, 0x00, 0x00, 0x00, 
	0x68, 0x00, 0x00, 0x00, 0x04, 0x00, 0x00, 0x00, 0x6a, 0xc9, 0xff, 0xff, 
	0x04, 0x00, 0x00, 0x00, 0x54, 0x00, 0x00, 0x00, 0x0c, 0x00, 0x00, 0x00, 
	0x08, 0x00, 0x0e, 0x00, 0x08, 0x00, 0x04, 0x00, 0x08, 0x00, 0x00, 0x00, 
	0x10, 0x00, 0x00, 0x00, 0x24, 0x00, 0x00, 0x00, 0x00, 0x00, 0x06, 0x00, 
	0x08, 0x00, 0x04, 0x00, 0x06, 0x00, 0x00, 0x00, 0x04, 0x00, 0x00, 0x00, 
	0x00, 0x00, 0x00, 0x00, 0x00, 0x00, 0x0a, 0x00, 0x10, 0x00, 0x0c, 0x00, 
	0x08, 0x00, 0x04, 0x00, 0x0a, 0x00, 0x00, 0x00, 0x02, 0x00, 0x00, 0x00, 
	0x02, 0x00, 0x00, 0x00, 0x04, 0x00, 0x00, 0x00, 0x06, 0x00, 0x00, 0x00, 
	0x32, 0x2e, 0x31, 0x32, 0x2e, 0x30, 0x00, 0x00, 0xca, 0xc9, 0xff, 0xff, 
	0x04, 0x00, 0x00, 0x00, 0x10, 0x00, 0x00, 0x00, 0x31, 0x2e, 0x35, 0x2e, 
	0x30, 0x00, 0x00, 0x00, 0x00, 0x00, 0x00, 0x00, 0x00, 0x00, 0x00, 0x00, 
	0xd8, 0xc4, 0xff, 0xff, 0xdc, 0xc4, 0xff, 0xff, 0xe0, 0xc4, 0xff, 0xff, 
	0xe4, 0xc4, 0xff, 0xff, 0xf6, 0xc9, 0xff, 0xff, 0x04, 0x00, 0x00, 0x00, 
	0x58, 0x02, 0x00, 0x00, 0xa5, 0x37, 0x67, 0xbe, 0xfd, 0xd0, 0x2e, 0xbe, 
	0x68, 0xd1, 0x93, 0x3e, 0xf6, 0x97, 0x9a, 0xbe, 0x55, 0xe9, 0x9f, 0xbe, 
	0x69, 0x2f, 0x89, 0xbe, 0xe9, 0x36, 0x3c, 0xbe, 0x6c, 0x02, 0x67, 0x3e, 
	0xc4, 0x88, 0x9a, 0xbd, 0x04, 0x1d, 0xa6, 0xbd, 0x20, 0xf5, 0xe8, 0xbd, 
	0x8f, 0x0a, 0xf0, 0xbd, 0x1a, 0x3f, 0x2b, 0x3e, 0x8b, 0xe7, 0x28, 0x3e, 
	0x8e, 0x02, 0x50, 0xbe, 0x88, 0x76, 0x21, 0xbd, 0xbe, 0x6b, 0x6f, 0x3e, 
	0xe4, 0x42, 0x9d, 0xbe, 0x42, 0xbd, 0xef, 0xbd, 0x63, 0xf4, 0x84, 0x3d, 
	0xab, 0x62, 0x9a, 0x3e, 0x20, 0xae, 0x31, 0xbe, 0x49, 0xd6, 0x94, 0x3e, 
	0xea, 0x26, 0x6d, 0xbe, 0x10, 0x17, 0x49, 0x3d, 0x0f, 0xde, 0x9b, 0xbe, 
	0xac, 0x99, 0xa6, 0x3e, 0x52, 0xca, 0x78, 0x3e, 0x00, 0xda, 0xba, 0xba, 
	0xe8, 0x9a, 0xa7, 0x3e, 0x77, 0x0b, 0x23, 0x3e, 0xc1, 0xed, 0x80, 0x3e, 
	0x1e, 0xf8, 0x24, 0x3e, 0xf7, 0xce, 0x5d, 0x3e, 0x8b, 0x4c, 0x5c, 0xbe, 
	0xbc, 0x09, 0x99, 0xbe, 0xe0, 0xc9, 0xf6, 0xbc, 0x51, 0x14, 0x0f, 0x3e, 
	0x38, 0x65, 0xb2, 0x3e, 0x34, 0x99, 0xcc, 0x3d, 0x50, 0xfe, 0xd1, 0x3d, 
	0x18, 0xe8, 0x3f, 0xbd, 0xf4, 0xc5, 0x11, 0x3e, 0xf0, 0xad, 0x7b, 0xbe, 
	0x49, 0x11, 0xa0, 0x3e, 0x7a, 0xe3, 0x89, 0xbe, 0xa0, 0x5d, 0xe2, 0x3d, 
	0xa1, 0x76, 0x66, 0xbe, 0x3f, 0x02, 0xce, 0xbd, 0x8b, 0x91, 0x47, 0xbe, 
	0x8c, 0x3e, 0xaa, 0xbe, 0x5a, 0xdd, 0xff, 0x3d, 0xf9, 0x6a, 0xfa, 0xbd, 
	0xce, 0xe4, 0x06, 0x3e, 0x72, 0xe9, 0x70, 0x3e, 0x78, 0x3f, 0x2c, 0xbe, 
	0x56, 0x36, 0x47, 0x3e, 0x39, 0xd2, 0x8f, 0xbe, 0x9e, 0x82, 0x84, 0xbe, 
	0xb8, 0x97, 0x6d, 0x3d, 0x5c, 0xd3, 0x9a, 0xbd, 0xb0, 0xdd, 0xf0, 0x3b, 
	0x2f, 0xb9, 0x25, 0xbe, 0xea, 0xe7, 0xaa, 0x3d, 0x90, 0xca, 0x1d, 0x3e, 
	0x30, 0x28, 0xbf, 0x3d, 0xd0, 0x31, 0x43, 0x3e, 0xcf, 0x6d, 0x8f, 0xbe, 
	0xe7, 0xa5, 0x26, 0x3d, 0x07, 0xc2, 0x7b, 0x3d, 0xd6, 0x9c, 0x38, 0x3e, 
	0x1a, 0xa4, 0x9a, 0xbe, 0x47, 0xbc, 0x98, 0x3e, 0xed, 0x3a, 0x95, 0x3e, 
	0x8a, 0x0d, 0xdb, 0xbd, 0x78, 0x26, 0x86, 0x3e, 0xb1, 0x37, 0x7f, 0xbd, 
	0xc0, 0x1c, 0xa5, 0xbd, 0x7a, 0xaa, 0x37, 0x3e, 0x59, 0x89, 0x70, 0xbe, 
	0x4d, 0xa7, 0x51, 0x3e, 0x1e, 0xcb, 0x71, 0x3e, 0x4b, 0xbb, 0xa9, 0xbe, 
	0x25, 0x25, 0x90, 0x3e, 0x0e, 0x40, 0x4f, 0x3d, 0xb5, 0x47, 0x93, 0x3e, 
	0xa4, 0x59, 0xd0, 0x3d, 0x2f, 0x38, 0x77, 0xbd, 0xf7, 0xc0, 0x89, 0x3e, 
	0x7a, 0x37, 0x55, 0x3e, 0xad, 0xb9, 0x4b, 0x3e, 0x0c, 0xee, 0x81, 0x3d, 
	0x64, 0x71, 0x7c, 0xbd, 0x4f, 0x9c, 0x04, 0x3e, 0x69, 0x8b, 0xa4, 0x3e, 
	0x26, 0x1e, 0x83, 0x3d, 0xc0, 0x01, 0x6c, 0xbc, 0x8d, 0x7e, 0x79, 0x39, 
	0x72, 0x1b, 0x4d, 0x3d, 0xb0, 0x59, 0x3f, 0xbd, 0x9d, 0x2e, 0xfd, 0xbd, 
	0x21, 0x80, 0xa2, 0xbe, 0xd2, 0xd4, 0xf9, 0x3d, 0x07, 0x83, 0x8a, 0x3e, 
	0x3c, 0x34, 0xfb, 0xbd, 0xc0, 0x1f, 0x9f, 0x3d, 0xb0, 0xda, 0xeb, 0xbc, 
	0xd1, 0x80, 0x20, 0x3e, 0x28, 0x14, 0x88, 0xbd, 0xdd, 0xe7, 0x9b, 0x3e, 
	0x9e, 0x5f, 0x29, 0xbe, 0x5d, 0x32, 0x9f, 0x3e, 0x89, 0xa0, 0x9d, 0x3e, 
	0x1f, 0x9c, 0x99, 0xbe, 0x9a, 0xf1, 0x75, 0x3e, 0xa0, 0x6b, 0xba, 0x3d, 
	0xe3, 0x0e, 0x0d, 0xbe, 0xab, 0xeb, 0x69, 0xbe, 0xad, 0x43, 0xd8, 0x3b, 
	0xef, 0xb2, 0x6d, 0x3e, 0x36, 0x65, 0xfc, 0x3d, 0x82, 0x2c, 0x1f, 0x3e, 
	0x5c, 0xcf, 0x8f, 0xbd, 0x5f, 0xd0, 0x83, 0x3e, 0xa0, 0x6d, 0x0b, 0xbd, 
	0x8e, 0xd7, 0x5e, 0xbe, 0xac, 0x87, 0x49, 0x3e, 0x70, 0x18, 0x15, 0x3e, 
	0xbd, 0xb8, 0x87, 0x3e, 0xe8, 0xea, 0x8f, 0xbd, 0x96, 0xad, 0x66, 0x3e, 
	0xce, 0x82, 0x4c, 0x3e, 0x0c, 0x6a, 0xb1, 0xbd, 0x47, 0x41, 0x72, 0x3e, 
	0x18, 0x02, 0x6f, 0xbd, 0xe5, 0x0c, 0x85, 0xbe, 0x68, 0x23, 0x39, 0x3d, 
	0x4c, 0x7c, 0x21, 0xbe, 0xcf, 0xf7, 0x9e, 0xbd, 0x08, 0x99, 0x88, 0xbe, 
	0x98, 0x45, 0xa8, 0xbe, 0x0f, 0xfc, 0x59, 0xbe, 0x87, 0x89, 0xa4, 0x3e, 
	0x6b, 0xce, 0x2d, 0x3e, 0xde, 0xd6, 0x0d, 0x3e, 0x6f, 0x4d, 0x6c, 0x3e, 
	0x60, 0xc3, 0x03, 0xbd, 0x34, 0x88, 0x99, 0xbd, 0xeb, 0xee, 0xe8, 0x3d, 
	0x20, 0x8a, 0xee, 0x3d, 0x5a, 0xcc, 0xff, 0xff, 0x04, 0x00, 0x00, 0x00, 
	0x10, 0x27, 0x00, 0x00, 0x6d, 0x03, 0x55, 0x3e, 0xa5, 0x1c, 0x6b, 0x3e, 
	0x8d, 0xed, 0x72, 0xbe, 0xef, 0x72, 0xc0, 0x3c, 0x87, 0x4f, 0xa8, 0x3c, 
	0x4d, 0x1c, 0x54, 0x3e, 0x37, 0xae, 0x70, 0x3e, 0x19, 0x2c, 0x0a, 0x3e, 
	0x02, 0x3a, 0x13, 0x3e, 0x44, 0x68, 0x77, 0x3d, 0x8a, 0xb8, 0x27, 0xbe, 
	0x59, 0xbd, 0x79, 0xbe, 0x5a, 0x93, 0xb2, 0x3d, 0xba, 0xa6, 0x66, 0x3e, 
	0x34, 0x68, 0xf7, 0x3d, 0xc2, 0x64, 0x66, 0xbe, 0xfa, 0x50, 0xd9, 0x3d, 
	0x00, 0x3f, 0x9b, 0x3b, 0x6e, 0xad, 0xb3, 0x3d, 0x09, 0x21, 0x05, 0xbe, 
	0x5a, 0x36, 0xad, 0x3d, 0x0f, 0x1e, 0x49, 0xbe, 0x7f, 0x78, 0xe1, 0x3a, 
	0x9c, 0x01, 0x6f, 0x3e, 0x35, 0x99, 0x16, 0xbe, 0x69, 0xe0, 0x31, 0x3e, 
	0x83, 0x28, 0x79, 0xbe, 0x18, 0xa4, 0x16, 0xbe, 0x15, 0x40, 0x40, 0xbe, 
	0x56, 0x38, 0x11, 0xbe, 0x12, 0x16, 0xa1, 0x3d, 0x62, 0xd5, 0xaf, 0x3d, 
	0xaf, 0xe3, 0x61, 0xbd, 0xb8, 0xae, 0xe6, 0x3d, 0x05, 0x14, 0x67, 0xbe, 
	0x8a, 0xf6, 0x26, 0x3e, 0xed, 0x86, 0x79, 0xbe, 0xc4, 0x2c, 0x2b, 0xbe, 
	0x66, 0x82, 0x73, 0x3d, 0x5e, 0xe2, 0xaf, 0x3d, 0xe8, 0x69, 0x2d, 0xbe, 
	0x08, 0xfb, 0xd1, 0x3c, 0x28, 0xa9, 0xc9, 0xbc, 0xcb, 0x94, 0x6a, 0x3e, 
	0xb9, 0x96, 0x5e, 0x3e, 0x28, 0x85, 0x4a, 0xbd, 0xa3, 0x30, 0x48, 0x3e, 
	0x62, 0xec, 0x6a, 0xbd, 0x94, 0x55, 0x55, 0x3d, 0x98, 0x39, 0xca, 0xbc, 
	0x04, 0xd6, 0x2b, 0xbe, 0xab, 0x3e, 0x17, 0xbd, 0xb9, 0xa1, 0x1e, 0x3e, 
	0xfc, 0xa4, 0xc0, 0xbb, 0x62, 0x47, 0x24, 0xbe, 0x10, 0xe4, 0x13, 0xbc, 
	0xc4, 0xb5, 0x13, 0xbe, 0x76, 0x74, 0xc3, 0xbd, 0x2c, 0x69, 0x5b, 0x3e, 
	0x35, 0x27, 0x5d, 0x3e, 0x1f, 0xa2, 0x6f, 0x3e, 0xba, 0x15, 0x28, 0xbe, 
	0x05, 0xbb, 0x71, 0xbe, 0x70, 0x2e, 0x26, 0x3d, 0x3f, 0x01, 0x40, 0x3e, 
	0x78, 0x76, 0xe0, 0xbc, 0x06, 0xb3, 0x51, 0x3e, 0xb0, 0x16, 0x71, 0xbe, 
	0x0a, 0x54, 0xf7, 0x3d, 0xc6, 0xe9, 0xfe, 0xbd, 0xf8, 0x42, 0xa3, 0xbd, 
	0xda, 0xa2, 0x0e, 0xbe, 0x6d, 0xa8, 0xcd, 0xbd, 0xcc, 0xe8, 0x9b, 0x3c, 
	0xcc, 0x5d, 0x50, 0xbe, 0x61, 0x5d, 0x38, 0xbe, 0xbe, 0xdb, 0x24, 0xbe, 
	0xbc, 0xa3, 0x63, 0x3d, 0x4e, 0x25, 0x21, 0x3e, 0x56, 0xbb, 0xda, 0xbd, 
	0x04, 0x6e, 0x43, 0x3d, 0xd8, 0x2f, 0x46, 0xbd, 0x07, 0xc1, 0x5f, 0x3e, 
	0x00, 0xe7, 0xbf, 0xbd, 0x79, 0x1b, 0x0f, 0x3e, 0x86, 0x6c, 0x3d, 0xbe, 
	0x53, 0xf1, 0x79, 0x3e, 0x31, 0xd4, 0x19, 0xbe, 0x0f, 0xbe, 0xa5, 0xbd, 
	0x90, 0xd9, 0x3d, 0xbe, 0x00, 0x22, 0x59, 0xba, 0x2a, 0xf2, 0xaf, 0xbd, 
	0x4f, 0x23, 0x45, 0x3d, 0x60, 0x75, 0xab, 0xbb, 0xb8, 0xbe, 0x6f, 0xbd, 
	0xfc, 0x16, 0x1f, 0xbd, 0xfd, 0xce, 0x37, 0x3e, 0xca, 0x58, 0x59, 0x3e, 
	0xbb, 0xda, 0x4a, 0x3e, 0x59, 0xd0, 0x0e, 0xbe, 0x75, 0x80, 0x5c, 0x3e, 
	0x34, 0xa2, 0x51, 0xbe, 0x43, 0x3a, 0xba, 0xbd, 0xa0, 0x7b, 0xbc, 0x3d, 
	0x62, 0xd8, 0x06, 0x3e, 0x54, 0x62, 0x41, 0x3d, 0x90, 0x95, 0x2c, 0xbd, 
	0xec, 0x30, 0x3f, 0xbe, 0x62, 0x81, 0xfa, 0xbd, 0x03, 0x3a, 0x64, 0x3e, 
	0xf0, 0x42, 0x54, 0x3c, 0xf2, 0xe6, 0x9d, 0x3d, 0x06, 0x87, 0x90, 0x3d, 
	0xdb, 0xbe, 0x11, 0xbe, 0xaf, 0x32, 0x19, 0xbe, 0x1c, 0xcf, 0x6c, 0xbe, 
	0x94, 0xfb, 0x42, 0xbe, 0xfe, 0x4e, 0x20, 0xbe, 0x82, 0xab, 0xc1, 0xbd, 
	0xcc, 0xda, 0x4e, 0x3d, 0xfe, 0xb5, 0xdf, 0x3d, 0x00, 0x9e, 0x3a, 0x3e, 
	0x9c, 0xa8, 0xc1, 0xbd, 0x5d, 0x07, 0x53, 0x3e, 0xe1, 0x36, 0x1f, 0xbd, 
	0x0f, 0xf6, 0x22, 0x3e, 0x86, 0xfa, 0xe5, 0x3d, 0x79, 0x79, 0x60, 0x3e, 
	0xd7, 0xa6, 0x36, 0x3e, 0x85, 0xd4, 0x59, 0x3e, 0x73, 0x37, 0x6b, 0x3e, 
	0x40, 0xfe, 0x38, 0xbd, 0xdc, 0x69, 0x75, 0x3e, 0xd0, 0xa2, 0x2f, 0xbe, 
	0x6a, 0x52, 0x1c, 0xbe, 0x40, 0xa2, 0x16, 0xbe, 0x80, 0x7f, 0x20, 0xbc, 
	0x96, 0x0e, 0x82, 0x3e, 0x46, 0xbd, 0x02, 0xbc, 0x57, 0xa0, 0x0f, 0x3e, 
	0xd3, 0xa1, 0x01, 0x3e, 0x67, 0xb1, 0x4f, 0x3e, 0x75, 0x43, 0x80, 0x3e, 
	0x81, 0xc0, 0x31, 0x3e, 0x6e, 0x1f, 0x8d, 0xbd, 0x14, 0x8c, 0x06, 0xbe, 
	0x44, 0xda, 0x2e, 0xbe, 0x2e, 0x3d, 0x6e, 0x3e, 0xc6, 0xce, 0xd9, 0xbd, 
	0x5b, 0x6c, 0x40, 0xbe, 0xa9, 0x7d, 0x3d, 0x3e, 0xdc, 0xe8, 0x3f, 0xbd, 
	0x74, 0x04, 0x5b, 0x3d, 0x7d, 0x89, 0x61, 0xbe, 0xd8, 0x35, 0x5d, 0xbe, 
	0xb4, 0x58, 0x51, 0x3d, 0x6c, 0x2d, 0x2b, 0x3d, 0x60, 0xbe, 0x35, 0xbe, 
	0x97, 0x0c, 0x24, 0x3e, 0xb2, 0x8e, 0xdb, 0xbd, 0x3e, 0x00, 0x86, 0xbd, 
	0xff, 0x37, 0x38, 0x3e, 0xf0, 0xed, 0x05, 0xbd, 0xc4, 0x77, 0x48, 0xbe, 
	0xac, 0x86, 0x70, 0x3d, 0x91, 0x61, 0x43, 0x3e, 0x20, 0x6d, 0xc0, 0x3b, 
	0xa3, 0xe0, 0x78, 0xbe, 0xd4, 0x03, 0xff, 0xbd, 0x90, 0x57, 0x06, 0xbc, 
	0x63, 0xe5, 0x0f, 0x3e, 0x4a, 0x72, 0x81, 0x3d, 0xf0, 0xf8, 0x77, 0x3c, 
	0xb3, 0xc3, 0x3a, 0x3e, 0x9c, 0xe6, 0x7d, 0x3d, 0xa0, 0xb0, 0x64, 0xbe, 
	0x14, 0x0e, 0xc5, 0xbd, 0xfe, 0xbe, 0x9e, 0x3d, 0x96, 0x72, 0x8c, 0x3d, 
	0x5f, 0xa5, 0x55, 0x3e, 0x00, 0xb8, 0xa0, 0x39, 0xfe, 0x60, 0xfa, 0xbd, 
	0x78, 0xd5, 0xbf, 0x3c, 0xa8, 0xde, 0x12, 0xbe, 0x44, 0x02, 0x54, 0xbd, 
	0x6c, 0x78, 0x49, 0xbe, 0x04, 0xeb, 0x2d, 0x3d, 0x9a, 0x38, 0xc0, 0x3d, 
	0x5f, 0x4e, 0x78, 0xbe, 0xa0, 0x1a, 0xca, 0x3b, 0xb0, 0x22, 0x17, 0xbe, 
	0xb0, 0x8c, 0x0a, 0xbe, 0x01, 0x30, 0x1e, 0xbe, 0xe3, 0x95, 0x4d, 0x3e, 
	0x74, 0xda, 0x60, 0x3d, 0x41, 0xde, 0x47, 0x3e, 0x28, 0x6e, 0x43, 0xbd, 
	0x8e, 0x5c, 0x92, 0xbd, 0x54, 0xf6, 0x78, 0x3d, 0x39, 0x8c, 0x24, 0x3e, 
	0x39, 0xa4, 0x1b, 0x3e, 0xd4, 0xd9, 0x35, 0x3d, 0xa3, 0x2f, 0x37, 0x3e, 
	0x61, 0xac, 0x4d, 0xbe, 0x5f, 0x9e, 0x47, 0xbe, 0xa0, 0x1b, 0xc8, 0x3b, 
	0x0f, 0xfc, 0x6c, 0x3e, 0x48, 0x20, 0x8c, 0xbc, 0x4e, 0x72, 0xcc, 0x3d, 
	0xa2, 0x01, 0x1f, 0xbe, 0xa2, 0x66, 0x05, 0xbe, 0x39, 0x92, 0x7a, 0x3e, 
	0x2b, 0x6f, 0x72, 0x3e, 0x14, 0x1c, 0x35, 0x3d, 0x51, 0xe6, 0x36, 0xbe, 
	0x4b, 0x4b, 0x44, 0x3e, 0x62, 0x5f, 0xd9, 0x3d, 0x64, 0xf3, 0x12, 0xbd, 
	0xf0, 0x6e, 0x02, 0xbe, 0x37, 0x89, 0x1f, 0xbe, 0x02, 0x64, 0x30, 0xbe, 
	0xd4, 0x35, 0x3b, 0xbe, 0xae, 0x1a, 0x12, 0xbe, 0x7a, 0x33, 0x95, 0x3d, 
	0xae, 0xb7, 0x12, 0xbe, 0x40, 0x74, 0x51, 0xbe, 0x08, 0xd0, 0xa5, 0xbd, 
	0x6a, 0x5b, 0xc1, 0x3d, 0xe8, 0xf8, 0x74, 0xbe, 0x52, 0x08, 0xa7, 0x3d, 
	0x4f, 0xe0, 0x55, 0xbe, 0xbe, 0x14, 0x2e, 0xbe, 0x02, 0x00, 0x6e, 0xbe, 
	0x7c, 0xbc, 0x5f, 0x3d, 0x6c, 0x19, 0xcc, 0xbd, 0x0c, 0xbc, 0x22, 0xbe, 
	0x0b, 0xb9, 0x27, 0xbe, 0x23, 0xbc, 0x29, 0x3e, 0x32, 0xc4, 0x91, 0x3d, 
	0x01, 0x80, 0x72, 0x3e, 0xb8, 0x77, 0xe4, 0x3c, 0xa4, 0xda, 0x09, 0xbe, 
	0x51, 0xbf, 0x0a, 0x3e, 0x83, 0x4d, 0x19, 0x3e, 0x24, 0x94, 0x2f, 0xbd, 
	0x7f, 0x5f, 0x03, 0x3e, 0x01, 0x87, 0x73, 0x3e, 0xa4, 0xb4, 0x6d, 0xbe, 
	0x15, 0x6d, 0x3d, 0x3e, 0xc1, 0x44, 0x3b, 0xbe, 0x42, 0x53, 0x98, 0x3d, 
	0x67, 0xfa, 0xa7, 0x3c, 0x8e, 0xd2, 0x43, 0xbe, 0x9b, 0xf9, 0x04, 0x3e, 
	0x97, 0xa5, 0xf5, 0x3d, 0x35, 0xd1, 0x4a, 0x3e, 0x90, 0x29, 0x84, 0xbc, 
	0x8e, 0xa9, 0xc4, 0x3d, 0x5a, 0xa9, 0xc7, 0x3d, 0xc3, 0xec, 0xf8, 0xbd, 
	0x32, 0x35, 0xdb, 0xbd, 0x36, 0x3f, 0x1f, 0xbe, 0xae, 0x2b, 0x8d, 0x3d, 
	0xb7, 0x0b, 0x33, 0x3e, 0xf0, 0x70, 0x09, 0x3d, 0xbf, 0x8a, 0x56, 0x3e, 
	0x56, 0x50, 0x53, 0x3e, 0x94, 0x0b, 0x49, 0x3d, 0xd5, 0xca, 0x25, 0x3e, 
	0xb4, 0x36, 0xc4, 0xbd, 0xa0, 0x62, 0x7f, 0xbc, 0x6a, 0xbf, 0x1e, 0xbd, 
	0x1e, 0xa5, 0xfd, 0xbd, 0x1d, 0x18, 0x23, 0x3c, 0x68, 0xdb, 0xf3, 0xbd, 
	0x17, 0x95, 0x2b, 0x3e, 0x83, 0x45, 0x11, 0x3e, 0xb1, 0xb1, 0x24, 0x3e, 
	0xf7, 0xa1, 0xb0, 0x3d, 0x84, 0x59, 0x38, 0xbd, 0xe5, 0x87, 0x32, 0xbe, 
	0xc2, 0x39, 0xe7, 0x3d, 0x9a, 0x65, 0x0d, 0xbe, 0xb2, 0x12, 0x16, 0xbe, 
	0x09, 0x17, 0x6e, 0xbe, 0xa5, 0xe6, 0xc4, 0xbc, 0x73, 0x9d, 0x1e, 0x3e, 
	0x11, 0xc6, 0x68, 0x3d, 0x6e, 0x60, 0xe3, 0xbd, 0x39, 0x1d, 0x42, 0x3e, 
	0x78, 0xd0, 0x37, 0xbd, 0x3a, 0x8d, 0x8a, 0x3d, 0x2c, 0x44, 0xd5, 0x3c, 
	0x92, 0x12, 0x14, 0xbe, 0xcb, 0x32, 0x24, 0x3e, 0x92, 0xc9, 0xe5, 0x3d, 
	0xa5, 0x10, 0x3d, 0x3e, 0x5a, 0x12, 0xee, 0x3b, 0xec, 0xdb, 0x6d, 0xbd, 
	0xb5, 0x2d, 0x68, 0x3e, 0x96, 0xd3, 0xc1, 0xbd, 0x53, 0xab, 0x0c, 0x3e, 
	0x28, 0x83, 0xb4, 0xbd, 0x28, 0xf9, 0x68, 0xbe, 0x28, 0xa2, 0x22, 0xbd, 
	0x94, 0x94, 0x39, 0x3d, 0x60, 0x9e, 0x05, 0xbe, 0xc6, 0x37, 0xb4, 0xbd, 
	0x99, 0x79, 0x61, 0x3e, 0x40, 0xcf, 0xd3, 0xbc, 0x28, 0x67, 0x42, 0xbe, 
	0xa5, 0x16, 0x13, 0x3e, 0xb5, 0x04, 0x4a, 0x3e, 0xec, 0x21, 0x08, 0x3d, 
	0x6a, 0xc6, 0xa2, 0x3d, 0x5d, 0x43, 0x77, 0x3e, 0x09, 0x8e, 0x75, 0xbe, 
	0x61, 0xa9, 0x54, 0x3e, 0x40, 0x68, 0x39, 0x3b, 0x5f, 0x96, 0x0f, 0x3e, 
	0xcc, 0x4f, 0xcb, 0xbd, 0x19, 0x20, 0x5a, 0xbe, 0x60, 0xbd, 0x1f, 0xbe, 
	0xc2, 0x69, 0xba, 0x3d, 0x4a, 0x2f, 0xa8, 0xbd, 0xc8, 0x88, 0x8b, 0xbc, 
	0xac, 0x97, 0xea, 0xbd, 0xd8, 0x4c, 0x61, 0xbd, 0xfd, 0xb3, 0x62, 0x3e, 
	0x36, 0x2b, 0xa4, 0xbd, 0xdc, 0x2d, 0x74, 0x3d, 0xb5, 0x5b, 0x4b, 0x3e, 
	0x9d, 0x08, 0x47, 0x3e, 0x63, 0x7f, 0x33, 0x3e, 0x56, 0x0a, 0x9c, 0xbd, 
	0x6e, 0xfc, 0x98, 0x3d, 0x30, 0x43, 0x78, 0x3c, 0x13, 0xc9, 0x6a, 0x3e, 
	0xc8, 0x70, 0x76, 0xbe, 0xa6, 0xbb, 0x00, 0xbe, 0x78, 0x84, 0x3a, 0xbe, 
	0xa4, 0x1e, 0x39, 0xbd, 0x5e, 0xa6, 0x56, 0xbe, 0xdc, 0x2c, 0x15, 0xbe, 
	0x81, 0x9d, 0x55, 0x3e, 0xd8, 0x86, 0x93, 0xbd, 0x9a, 0xb1, 0xf5, 0x3d, 
	0x81, 0x99, 0x40, 0x3e, 0x50, 0x4b, 0x38, 0xbd, 0x76, 0xa0, 0x8e, 0x3d, 
	0x1e, 0xbf, 0x2c, 0xbe, 0x7d, 0xf0, 0x41, 0x3e, 0xe5, 0x3e, 0xee, 0x3d, 
	0x71, 0x2d, 0x0d, 0x3e, 0xb4, 0x72, 0xcd, 0xbd, 0x2c, 0x68, 0x88, 0xbd, 
	0x68, 0x98, 0x50, 0xbd, 0xb6, 0xa0, 0x2b, 0xbe, 0x00, 0x82, 0xb7, 0x3c, 
	0x13, 0xfd, 0x38, 0x3e, 0xab, 0xb6, 0x1f, 0x3e, 0xd6, 0x4e, 0xb8, 0x3d, 
	0x6a, 0x45, 0x4f, 0xbe, 0x0b, 0x9e, 0x1f, 0xbe, 0x38, 0xf1, 0x0c, 0x3a, 
	0xea, 0x71, 0xe8, 0x3d, 0xf0, 0x67, 0x4b, 0xbe, 0xf4, 0x7c, 0xe2, 0xbd, 
	0x1e, 0xb9, 0xba, 0x3d, 0x74, 0xa5, 0x09, 0xbe, 0xd3, 0xdd, 0x51, 0x3e, 
	0x1a, 0x96, 0x7b, 0xbe, 0x8c, 0x6c, 0x61, 0x3e, 0xbf, 0x69, 0x55, 0xbc, 
	0x01, 0x7a, 0x30, 0x3e, 0x9b, 0x8b, 0x13, 0xbe, 0x6d, 0xca, 0x6e, 0x3e, 
	0x68, 0x49, 0x00, 0xbd, 0x5b, 0x12, 0x92, 0x3d, 0x89, 0x10, 0x21, 0x3e, 
	0x20, 0x2b, 0x17, 0xbd, 0xa1, 0x80, 0x69, 0x3e, 0x5e, 0x2c, 0x91, 0xbd, 
	0xa5, 0x9c, 0x09, 0xbe, 0x56, 0x17, 0x16, 0xbe, 0x6a, 0x42, 0x23, 0xbd, 
	0xb3, 0xc3, 0x13, 0xbe, 0xb9, 0xa9, 0x44, 0xbe, 0x81, 0x28, 0x76, 0xbd, 
	0x72, 0x6a, 0x27, 0xbe, 0xda, 0x8c, 0xe7, 0xbd, 0x2c, 0x23, 0x40, 0x3d, 
	0xcd, 0xcf, 0x33, 0x3e, 0x2a, 0x7a, 0x91, 0xbd, 0x28, 0xae, 0x1e, 0xbd, 
	0xe8, 0x38, 0x44, 0xbd, 0x0b, 0x0b, 0x23, 0xbe, 0xa0, 0xbf, 0xcd, 0x3d, 
	0x50, 0x1b, 0x49, 0x3c, 0x10, 0xc8, 0x7d, 0x3c, 0xae, 0x5b, 0xb1, 0xbd, 
	0x88, 0x91, 0x64, 0xbd, 0x6c, 0x41, 0x45, 0xbe, 0x98, 0x08, 0xed, 0xbd, 
	0x76, 0x3f, 0xf9, 0xbd, 0x1c, 0xad, 0x0d, 0x3d, 0xc0, 0x6e, 0x49, 0xbe, 
	0x28, 0x00, 0x15, 0xbe, 0x2a, 0xc8, 0xc1, 0x3d, 0x0e, 0xfa, 0xd4, 0xbd, 
	0xee, 0x88, 0xc9, 0xbd, 0x7c, 0xab, 0x51, 0xbe, 0xd6, 0xf0, 0x0e, 0xbe, 
	0x36, 0x98, 0x23, 0xbe, 0x88, 0x13, 0x9e, 0x3c, 0x38, 0x12, 0xe2, 0xbc, 
	0x89, 0x6d, 0x6f, 0x3e, 0x8a, 0xbf, 0xe9, 0x3d, 0xce, 0x5f, 0x71, 0xbe, 
	0x00, 0x12, 0xe4, 0xba, 0xe6, 0x79, 0x08, 0xbe, 0x09, 0x5a, 0x14, 0x3e, 
	0x60, 0x71, 0xe5, 0x3b, 0x1d, 0x89, 0x08, 0x3e, 0xae, 0x97, 0x10, 0xbe, 
	0xe5, 0x4e, 0x08, 0xbe, 0x72, 0xb0, 0xeb, 0x3d, 0x30, 0x9e, 0x0a, 0xbe, 
	0xec, 0xff, 0x10, 0x3d, 0x1c, 0xf7, 0x7e, 0x3d, 0xe6, 0x55, 0x9b, 0x3d, 
	0x4a, 0x60, 0x8d, 0x3d, 0xb8, 0x1e, 0x38, 0xbe, 0xd0, 0xb5, 0x45, 0xbc, 
	0xf5, 0x56, 0x56, 0xbe, 0xf0, 0x51, 0xc7, 0xbc, 0xee, 0xd5, 0xc5, 0x3d, 
	0x3e, 0x63, 0xe8, 0xbd, 0x87, 0x73, 0x5e, 0xbe, 0xb5, 0x13, 0x01, 0x3e, 
	0xdb, 0xc9, 0x70, 0x3e, 0xd2, 0x9f, 0x80, 0x3d, 0xf3, 0xb3, 0x78, 0x3e, 
	0x84, 0x66, 0x19, 0x3d, 0x28, 0x58, 0x71, 0xbd, 0x1a, 0x9e, 0xc6, 0x3d, 
	0x47, 0x8a, 0x72, 0x3e, 0x18, 0xc3, 0x9b, 0x3c, 0xe0, 0x2b, 0x2c, 0xbd, 
	0xe1, 0xa4, 0x75, 0x3e, 0x68, 0xe5, 0xe8, 0xbd, 0xb5, 0x49, 0x04, 0x3e, 
	0xa7, 0xa9, 0x0a, 0x3e, 0x03, 0xf7, 0x2c, 0x3e, 0x90, 0xaf, 0x2b, 0xbe, 
	0x93, 0xcd, 0x3b, 0xbe, 0x8e, 0xf5, 0xeb, 0x3d, 0x22, 0x0a, 0x04, 0xbe, 
	0xa6, 0x1c, 0x08, 0xbe, 0x79, 0xf6, 0x5f, 0x3e, 0x11, 0xda, 0x78, 0x3e, 
	0x04, 0xb3, 0x03, 0xbd, 0x60, 0x7e, 0x95, 0xbb, 0xe2, 0xaa, 0xbe, 0x3d, 
	0x03, 0x46, 0x14, 0xbe, 0x96, 0xf0, 0xdd, 0xbd, 0x00, 0xe7, 0xb1, 0xba, 
	0xba, 0xec, 0x62, 0xbe, 0x29, 0xa5, 0x51, 0x3e, 0x6e, 0xcd, 0xf7, 0x3d, 
	0xfe, 0x66, 0x2a, 0xbe, 0x5a, 0x12, 0xcc, 0x3d, 0x90, 0x60, 0x5f, 0x3c, 
	0x17, 0x7d, 0x68, 0x3e, 0xc8, 0xc1, 0x91, 0x3c, 0x65, 0xac, 0x40, 0xbe, 
	0xf6, 0x2f, 0xf7, 0x3d, 0xec, 0xf7, 0x21, 0x3d, 0xb8, 0xa1, 0x31, 0xbe, 
	0x3d, 0xb2, 0x4d, 0x3e, 0x9a, 0x8e, 0xdd, 0x3d, 0x6c, 0x24, 0x50, 0xbd, 
	0x74, 0x8a, 0xd3, 0xbd, 0x9e, 0xe2, 0xb1, 0xbd, 0x0c, 0x09, 0x48, 0x3d, 
	0x08, 0x2f, 0xf1, 0x3c, 0x3a, 0x02, 0xb4, 0x3d, 0x7f, 0x1b, 0x76, 0x3e, 
	0xca, 0x45, 0xa6, 0x3d, 0x64, 0x0b, 0x70, 0xbd, 0x2e, 0x25, 0x98, 0x3d, 
	0x00, 0x60, 0xd9, 0xbb, 0x6a, 0xc1, 0xe0, 0xbd, 0xe8, 0xca, 0x03, 0xbe, 
	0x01, 0x54, 0x01, 0x3e, 0x00, 0x2d, 0xa9, 0x3a, 0x1c, 0x8b, 0x5d, 0xbd, 
	0x67, 0x1c, 0x57, 0xbe, 0x84, 0x0a, 0x3d, 0x3d, 0x13, 0xaa, 0x36, 0x3e, 
	0x18, 0x0d, 0x5f, 0xbd, 0xbc, 0xe5, 0x13, 0x3e, 0x73, 0x63, 0xc9, 0xbd, 
	0x02, 0xe0, 0x88, 0x3e, 0x08, 0x20, 0x0e, 0xbe, 0x86, 0xd2, 0x00, 0xbe, 
	0x62, 0xd6, 0xe0, 0x3d, 0x59, 0xa0, 0x5b, 0xbe, 0xa5, 0x36, 0xa3, 0x3d, 
	0x84, 0x56, 0x7b, 0x3d, 0xd3, 0x1f, 0x19, 0x3e, 0x37, 0x8f, 0x68, 0xbe, 
	0xe8, 0xec, 0x5b, 0xbd, 0xb0, 0xff, 0x47, 0x3e, 0x24, 0x44, 0xc8, 0xbd, 
	0xfc, 0xa6, 0x5f, 0x3d, 0x5b, 0xa5, 0x15, 0x3e, 0x7a, 0xd4, 0xcc, 0x3d, 
	0x4d, 0xeb, 0xfd, 0xbd, 0x18, 0x4f, 0xe6, 0x3c, 0x43, 0x9c, 0x64, 0x3e, 
	0xa1, 0xf0, 0x54, 0x3e, 0x2b, 0x53, 0x67, 0x3e, 0x11, 0xb6, 0x0c, 0x3e, 
	0x30, 0xd3, 0x41, 0xbe, 0x55, 0xa8, 0x2b, 0x3e, 0x51, 0x47, 0x4c, 0x3e, 
	0x7d, 0xe3, 0x66, 0xbe, 0x3a, 0x11, 0x63, 0xbe, 0x64, 0x6a, 0x60, 0xbe, 
	0xbc, 0xd6, 0x1d, 0x3d, 0x8e, 0x22, 0x0e, 0xbe, 0x89, 0x00, 0x45, 0xbe, 
	0xe3, 0x0d, 0xd8, 0x3a, 0x98, 0x7d, 0x9d, 0x3c, 0x98, 0x0c, 0x14, 0xbe, 
	0x71, 0x81, 0x15, 0x3e, 0xcd, 0x84, 0x1f, 0x3e, 0x85, 0x97, 0x10, 0x3c, 
	0x64, 0xab, 0x51, 0xbe, 0xae, 0x2e, 0x0d, 0xbe, 0xb6, 0x7e, 0x54, 0xbe, 
	0xd9, 0x94, 0xb6, 0xbd, 0x40, 0x6d, 0xf4, 0xbb, 0x7b, 0xbd, 0x27, 0x3e, 
	0x3b, 0xcf, 0x2f, 0x3e, 0xc6, 0x19, 0xee, 0x3d, 0x30, 0x6e, 0x99, 0x3c, 
	0xb8, 0x87, 0x4f, 0xbd, 0x2c, 0x0d, 0x0a, 0x3d, 0x8e, 0x5b, 0xa2, 0xbd, 
	0x36, 0x43, 0x61, 0xbd, 0x06, 0xb3, 0x16, 0xbe, 0x4a, 0xf7, 0x1c, 0x3e, 
	0x5f, 0x0d, 0x51, 0x3e, 0x36, 0x76, 0xdd, 0x3d, 0x8c, 0x2d, 0x80, 0xbd, 
	0xa8, 0x26, 0x8c, 0xbc, 0xc0, 0xe7, 0x2d, 0xbe, 0xae, 0x7b, 0xbe, 0x3d, 
	0x98, 0x2a, 0xa1, 0xbd, 0xee, 0xa6, 0x2c, 0xbe, 0xa0, 0xe7, 0xf0, 0xbd, 
	0xea, 0x06, 0x28, 0x3e, 0x86, 0xcd, 0x2d, 0x3e, 0xa5, 0x5c, 0x7a, 0xbe, 
	0xf3, 0xd5, 0xd0, 0x3b, 0x1c, 0xb7, 0x26, 0x3d, 0x70, 0x26, 0x62, 0xbe, 
	0xff, 0xe3, 0x03, 0xbe, 0xeb, 0xe4, 0x41, 0x3e, 0x27, 0xb4, 0x74, 0xbe, 
	0xca, 0x67, 0x15, 0xbe, 0xe2, 0x10, 0x73, 0x3e, 0x42, 0xcc, 0xff, 0x3d, 
	0xa4, 0x59, 0x25, 0x3d, 0x30, 0x68, 0x28, 0x3c, 0xf4, 0x55, 0xca, 0xbd, 
	0xff, 0xd3, 0x85, 0x3d, 0x92, 0xd0, 0xb8, 0xbd, 0x76, 0xcc, 0x6d, 0xbe, 
	0xb9, 0x00, 0x23, 0x3e, 0xa4, 0x73, 0x5e, 0xbe, 0xc4, 0xfa, 0x13, 0xbe, 
	0x10, 0xe6, 0x78, 0xbc, 0xd0, 0x09, 0x96, 0xbd, 0xcc, 0xbc, 0x15, 0xbd, 
	0x84, 0xa6, 0x75, 0xbd, 0x18, 0xf1, 0x1b, 0x3e, 0x64, 0xb5, 0x04, 0x3d, 
	0x3e, 0x7d, 0x8a, 0xbd, 0xa8, 0x82, 0xc8, 0xbc, 0x85, 0x23, 0x12, 0x3e, 
	0x67, 0x1d, 0x04, 0x3e, 0x11, 0x54, 0x00, 0x3e, 0x0e, 0x6c, 0x78, 0xbe, 
	0x9c, 0xb3, 0xbd, 0xbd, 0x63, 0x54, 0x18, 0x3e, 0x72, 0x83, 0xd6, 0x3d, 
	0x56, 0x7e, 0x65, 0xbe, 0x4e, 0xbd, 0xb7, 0xbd, 0x13, 0x43, 0x51, 0x3e, 
	0x2e, 0x7f, 0x65, 0xbe, 0x75, 0x6a, 0x68, 0x3e, 0xd2, 0x29, 0xe1, 0xbd, 
	0x36, 0xbe, 0x5a, 0xbe, 0xe6, 0x06, 0x96, 0x3d, 0x0b, 0x43, 0x1b, 0x3e, 
	0x70, 0xd1, 0x2b, 0x3c, 0x82, 0xd4, 0x26, 0xbe, 0x96, 0xf5, 0xe0, 0xbd, 
	0xde, 0xc2, 0x99, 0xbd, 0x77, 0x6d, 0x2e, 0x3e, 0xf0, 0x44, 0x21, 0x3c, 
	0x70, 0x63, 0xf8, 0xbd, 0x7a, 0xa3, 0x9f, 0x3d, 0xa0, 0xc2, 0x24, 0xbd, 
	0xc8, 0x13, 0x15, 0xbe, 0xc8, 0x24, 0xfa, 0x3c, 0x77, 0x36, 0x4d, 0xbe, 
	0x26, 0xf8, 0x98, 0xbd, 0xa0, 0xca, 0xdf, 0xbc, 0xd5, 0xdd, 0x49, 0xbe, 
	0xe6, 0x2e, 0x9b, 0x3d, 0x7d, 0xd6, 0x44, 0x3e, 0xda, 0xcc, 0x5c, 0xbe, 
	0x0a, 0x83, 0x09, 0xbe, 0x5c, 0x45, 0x4c, 0xbd, 0x20, 0xc2, 0xb6, 0xbc, 
	0xa2, 0x8e, 0xb2, 0x3d, 0xf5, 0x54, 0x67, 0x3e, 0x2c, 0x16, 0xf1, 0xbd, 
	0x76, 0x8d, 0x96, 0x3d, 0x60, 0x44, 0xaf, 0xbd, 0x6c, 0x33, 0xe8, 0xbd, 
	0x8e, 0x52, 0x45, 0xbe, 0xc6, 0xe5, 0x98, 0x3d, 0xa7, 0x4d, 0x58, 0x3e, 
	0xe9, 0xd7, 0x20, 0x3e, 0xce, 0xe6, 0xd8, 0x3d, 0xa0, 0x4a, 0xb8, 0xbb, 
	0x91, 0x15, 0x47, 0xbe, 0x14, 0x7e, 0xaa, 0xbd, 0x54, 0xbb, 0x14, 0xbe, 
	0x30, 0xa0, 0x79, 0x3c, 0x68, 0x78, 0xea, 0x3c, 0x30, 0x3e, 0x63, 0x3c, 
	0x8c, 0x75, 0x14, 0x3d, 0xc9, 0x84, 0x0a, 0x3e, 0x4e, 0xed, 0x67, 0xbe, 
	0x08, 0x48, 0x80, 0xbd, 0xef, 0x6a, 0x75, 0xbe, 0xc2, 0x58, 0xbd, 0xbb, 
	0x74, 0xe6, 0x42, 0xbe, 0x9e, 0xab, 0xba, 0x3d, 0xc7, 0x1a, 0x13, 0x3e, 
	0xdb, 0x38, 0x24, 0x3e, 0x26, 0x55, 0x70, 0xbe, 0xd8, 0x86, 0xca, 0x3d, 
	0x72, 0xdd, 0xeb, 0x3d, 0xc8, 0x5f, 0x52, 0xbe, 0x3a, 0xf7, 0x62, 0xbe, 
	0x1e, 0x31, 0xa2, 0xbd, 0x5e, 0x16, 0x7d, 0x3e, 0x97, 0x06, 0x14, 0xbe, 
	0xa3, 0xee, 0x59, 0x3e, 0x1b, 0xa2, 0xdc, 0xbd, 0xfa, 0x9f, 0xa0, 0x3d, 
	0xe0, 0x5f, 0x31, 0xbe, 0xb8, 0x0b, 0xf4, 0x3c, 0xfc, 0x5c, 0x2e, 0xbd, 
	0xdb, 0xf9, 0x9e, 0x3d, 0x0b, 0xde, 0x22, 0x3e, 0xfe, 0x8d, 0xa3, 0x3d, 
	0xb5, 0xb3, 0x4f, 0x3d, 0x10, 0x92, 0x5f, 0x3c, 0xb0, 0x8a, 0x2e, 0xbe, 
	0xe2, 0x1f, 0x97, 0xbd, 0x1d, 0x47, 0x29, 0x3e, 0x2e, 0xe6, 0xdd, 0xbd, 
	0x36, 0x42, 0xbf, 0x3d, 0xb8, 0xc9, 0x08, 0xbe, 0xdc, 0x0b, 0xee, 0xbb, 
	0x2c, 0xc4, 0x51, 0x3e, 0xf6, 0x1e, 0xad, 0x3d, 0x09, 0x04, 0x1b, 0x3e, 
	0xb4, 0x0a, 0x27, 0xbd, 0x1d, 0x67, 0x19, 0x3a, 0xa5, 0x6c, 0x79, 0x3d, 
	0xf6, 0x38, 0xbe, 0xbd, 0x38, 0xdb, 0xeb, 0xbd, 0xc6, 0xef, 0x2d, 0xbe, 
	0xff, 0x11, 0x05, 0xbe, 0x0f, 0xb5, 0x76, 0xbe, 0xe4, 0x6c, 0x76, 0xbe, 
	0x28, 0xc6, 0xad, 0x3c, 0x02, 0xd5, 0xee, 0xbd, 0xdb, 0xd0, 0x98, 0xbd, 
	0x73, 0xc6, 0x67, 0x3e, 0xa0, 0x62, 0xed, 0xbc, 0xdd, 0x30, 0x5b, 0xbe, 
	0xf0, 0xe2, 0x54, 0xbd, 0xfb, 0xc1, 0x33, 0xbe, 0x9e, 0xc5, 0xd9, 0xbd, 
	0xc6, 0xec, 0x41, 0xbe, 0x5f, 0x63, 0x3c, 0x3e, 0xc4, 0xf3, 0xc1, 0xbd, 
	0x18, 0x53, 0x63, 0xbd, 0x6e, 0x35, 0xac, 0x3d, 0xa1, 0x97, 0x5e, 0x3e, 
	0x33, 0x11, 0x31, 0x3e, 0x54, 0x90, 0x34, 0x3d, 0x3d, 0x61, 0x1d, 0x3e, 
	0xbe, 0x64, 0x8a, 0x3d, 0xb2, 0xfc, 0x1a, 0xbe, 0xa5, 0x71, 0xf8, 0xbd, 
	0x78, 0x92, 0xe1, 0x3c, 0x44, 0x6b, 0x14, 0xbd, 0xb3, 0xf9, 0x51, 0xbe, 
	0x25, 0xd5, 0x4d, 0x3e, 0x08, 0x52, 0xaf, 0xbd, 0x72, 0x9c, 0xb4, 0xbd, 
	0xbc, 0x63, 0x50, 0x3d, 0x40, 0x93, 0x6c, 0x3b, 0xea, 0x80, 0x6f, 0xbe, 
	0xed, 0x19, 0x4b, 0x3e, 0xdd, 0x9b, 0x0b, 0x3e, 0xae, 0xfa, 0x4a, 0xbe, 
	0x98, 0xd0, 0x2f, 0xbe, 0x49, 0xd0, 0x4b, 0x3e, 0x98, 0x1b, 0xb5, 0x3c, 
	0xf9, 0x79, 0x0d, 0x3e, 0xc4, 0x18, 0x6f, 0xbe, 0x0d, 0x5c, 0x20, 0x3e, 
	0x12, 0x82, 0xf2, 0xbd, 0xf2, 0x65, 0x78, 0xbe, 0x58, 0xf8, 0xc8, 0xbd, 
	0x48, 0x84, 0x2a, 0xbe, 0x50, 0xb9, 0x24, 0xbd, 0x76, 0xaf, 0x0d, 0xbe, 
	0xfa, 0x40, 0x36, 0xbe, 0x8c, 0xe5, 0x03, 0xbd, 0x17, 0x51, 0x5c, 0x3e, 
	0xec, 0x9f, 0x4a, 0x3d, 0xde, 0x26, 0x98, 0xbd, 0xdd, 0x2c, 0x15, 0x3e, 
	0xb4, 0xd1, 0xf0, 0xbd, 0xeb, 0xf5, 0x64, 0x3e, 0x16, 0x97, 0xbe, 0x3d, 
	0x20, 0x37, 0xe8, 0xbd, 0xba, 0xb1, 0xc3, 0x3d, 0x7b, 0xb5, 0x01, 0x3e, 
	0xff, 0x1c, 0x76, 0x3e, 0x99, 0x04, 0x38, 0x3e, 0xe6, 0x98, 0xc7, 0x3d, 
	0xb0, 0xcb, 0x8c, 0xbd, 0xf3, 0x9f, 0x2d, 0xbe, 0x0f, 0x1f, 0x0b, 0xbe, 
	0xc7, 0x52, 0x36, 0x3e, 0x06, 0xed, 0x52, 0xbe, 0x18, 0xf6, 0x00, 0xbd, 
	0x6e, 0xc2, 0x42, 0xbe, 0x66, 0x93, 0xd6, 0x3d, 0x14, 0x18, 0x6f, 0xbe, 
	0xe5, 0x64, 0x09, 0x3e, 0xc1, 0x8b, 0x18, 0xbe, 0xca, 0xb5, 0xae, 0x3d, 
	0x69, 0x37, 0x00, 0x3e, 0x26, 0x12, 0xf7, 0x3d, 0x5a, 0xf6, 0xd5, 0x3d, 
	0x35, 0x8f, 0x36, 0xbe, 0x6e, 0x9a, 0x1c, 0xbe, 0x24, 0xdb, 0x93, 0xbd, 
	0xb1, 0x8b, 0x61, 0xbe, 0xd6, 0xe5, 0xdd, 0x3d, 0x12, 0x04, 0x47, 0xbe, 
	0x50, 0xb5, 0x8d, 0xbc, 0x38, 0x98, 0x68, 0xbd, 0x92, 0x26, 0x4c, 0xbe, 
	0x3d, 0xd3, 0x0e, 0x3e, 0x7c, 0xdb, 0x2d, 0x3d, 0xd3, 0x77, 0x2d, 0x3e, 
	0x03, 0x38, 0x6e, 0xbe, 0xfc, 0x58, 0x5a, 0x3d, 0x47, 0x8e, 0x51, 0x3e, 
	0xe6, 0x3f, 0xfc, 0x3d, 0x14, 0xbd, 0x61, 0xbe, 0x84, 0x9b, 0x57, 0xbe, 
	0xfb, 0x71, 0x64, 0xbe, 0xaa, 0xf8, 0x5a, 0xbe, 0x36, 0x01, 0x8e, 0xbd, 
	0xa6, 0xa5, 0xd9, 0x3d, 0x5c, 0x87, 0x33, 0xbe, 0xa8, 0xe2, 0xb6, 0xbd, 
	0x1a, 0xb5, 0xc2, 0x3d, 0xa4, 0xe0, 0x35, 0xbd, 0xb2, 0x31, 0x06, 0xbe, 
	0x40, 0xd3, 0x0d, 0xbb, 0xf6, 0x3c, 0x5d, 0xbe, 0xff, 0x49, 0x60, 0x3e, 
	0x9e, 0x83, 0xe1, 0x3d, 0x82, 0x0a, 0xc5, 0x3d, 0x1f, 0x06, 0xb3, 0xbc, 
	0x70, 0xd8, 0x4d, 0x3e, 0xaf, 0x7d, 0xb5, 0x3d, 0xba, 0x55, 0xe1, 0xbd, 
	0xe8, 0xf0, 0xe0, 0x3c, 0xb8, 0x87, 0x72, 0xbe, 0x37, 0x99, 0x6a, 0x3c, 
	0x5a, 0xe7, 0xf0, 0xbd, 0x04, 0x55, 0x7a, 0x3d, 0x50, 0x9c, 0x11, 0xbc, 
	0x80, 0x40, 0xa2, 0xbc, 0x35, 0x9d, 0x10, 0xbd, 0x29, 0x60, 0x2e, 0xbe, 
	0x0b, 0x1c, 0x17, 0x3e, 0x8b, 0x43, 0x56, 0x3e, 0x8f, 0x8a, 0x0f, 0x3e, 
	0xd8, 0xd0, 0xce, 0x3c, 0xe0, 0x75, 0xe1, 0xbb, 0xca, 0xef, 0xb6, 0x3d, 
	0x44, 0x2a, 0x37, 0x3e, 0xad, 0xbc, 0x02, 0xbd, 0x18, 0x66, 0x16, 0xbe, 
	0x54, 0x43, 0x0e, 0x3e, 0x30, 0xef, 0xc7, 0xbd, 0x6d, 0xc9, 0x34, 0x3e, 
	0xaa, 0xcf, 0xf4, 0xbd, 0x68, 0x66, 0xea, 0xbd, 0x85, 0x0c, 0xfc, 0xbd, 
	0x98, 0x5f, 0x30, 0xbe, 0xc3, 0x6c, 0x2e, 0x3e, 0x1f, 0x0a, 0xb5, 0x3d, 
	0x8b, 0xee, 0x1d, 0xbe, 0x69, 0x8d, 0x0b, 0x3e, 0x19, 0xa1, 0xaa, 0xbd, 
	0xd8, 0xb0, 0xb6, 0x3c, 0x9c, 0xe5, 0x8f, 0x3c, 0x4e, 0x45, 0x53, 0x3e, 
	0xec, 0x9f, 0x64, 0xbd, 0xfd, 0xf1, 0x75, 0x3e, 0x85, 0x41, 0x62, 0xbe, 
	0x6a, 0x0c, 0x6c, 0x3e, 0x72, 0x1e, 0x8d, 0x3d, 0x5c, 0x85, 0x1a, 0x3d, 
	0xba, 0xcc, 0x10, 0xbe, 0x1c, 0xc3, 0x38, 0xbe, 0x47, 0x8e, 0xdd, 0xbc, 
	0xe0, 0x88, 0x35, 0xbd, 0xe2, 0x2b, 0x95, 0x3d, 0x46, 0xc8, 0x87, 0x3d, 
	0x20, 0xee, 0x5e, 0x3d, 0x77, 0x81, 0xa7, 0xbd, 0x0d, 0xad, 0x41, 0xbc, 
	0x67, 0xa3, 0x5d, 0xbd, 0xdc, 0xd5, 0x43, 0xbe, 0xee, 0x87, 0xf7, 0x3d, 
	0x79, 0xb6, 0x70, 0x3e, 0xd1, 0xb9, 0x74, 0x3e, 0x00, 0x46, 0x5a, 0xbd, 
	0x2f, 0xf4, 0x42, 0xbe, 0x88, 0x95, 0x86, 0xbc, 0x07, 0x31, 0x32, 0x3e, 
	0xf2, 0x87, 0x31, 0xbe, 0xed, 0xed, 0x96, 0xbd, 0x86, 0x11, 0x46, 0xbe, 
	0x75, 0x77, 0xbb, 0x3d, 0x57, 0x5f, 0x25, 0x3e, 0xe4, 0x13, 0x4e, 0x3d, 
	0xae, 0x4a, 0xe3, 0xbd, 0xe2, 0x1c, 0xb3, 0x3d, 0xec, 0x96, 0x19, 0x3e, 
	0x90, 0xe4, 0x9c, 0xbd, 0x32, 0xb2, 0x91, 0xbd, 0x57, 0x1e, 0x26, 0x3e, 
	0x2a, 0x81, 0x98, 0xbd, 0x8f, 0x5f, 0x71, 0x3e, 0x0b, 0x6f, 0x6d, 0x3e, 
	0x8c, 0xfd, 0x3c, 0x3e, 0xb2, 0xbc, 0xec, 0xbd, 0x5d, 0x63, 0x32, 0x3e, 
	0xb1, 0x7a, 0x72, 0xbe, 0x2b, 0x4d, 0x65, 0x3e, 0x14, 0x3b, 0x32, 0xbe, 
	0x2c, 0x9f, 0x40, 0x3d, 0xd8, 0x2c, 0xf1, 0xbd, 0xfc, 0x74, 0x9c, 0xbd, 
	0xec, 0x73, 0x1e, 0xbe, 0x5f, 0x8a, 0x94, 0x3c, 0x54, 0x72, 0x22, 0x3d, 
	0xa1, 0x3d, 0x24, 0x3e, 0x54, 0x4f, 0x39, 0xbd, 0x11, 0x54, 0x81, 0xbe, 
	0xab, 0x54, 0x79, 0x3e, 0x9a, 0x82, 0x6f, 0xbe, 0x21, 0xa5, 0x48, 0x3e, 
	0x08, 0xfc, 0xcc, 0xbd, 0xed, 0xfb, 0xfd, 0xbc, 0x49, 0x7b, 0x1a, 0x3e, 
	0x06, 0xee, 0x31, 0xbe, 0x8d, 0x4b, 0x13, 0x3e, 0xd1, 0x26, 0x19, 0xbe, 
	0x85, 0x40, 0x18, 0xbe, 0x4c, 0x79, 0xcb, 0xbd, 0x8d, 0xfb, 0x3f, 0x3d, 
	0x41, 0x8e, 0x4f, 0xbe, 0x64, 0x6f, 0x50, 0x3d, 0x10, 0xa9, 0x50, 0x3c, 
	0x82, 0x08, 0x44, 0xbe, 0x9c, 0x57, 0xa6, 0xbd, 0xd0, 0x67, 0xdc, 0xbd, 
	0xc0, 0xb9, 0x1c, 0x3b, 0x61, 0x2b, 0x53, 0x3e, 0x02, 0x61, 0x0b, 0x3e, 
	0xb4, 0x9c, 0x42, 0x3e, 0x84, 0x91, 0x0a, 0x3d, 0x16, 0x82, 0x1d, 0x3e, 
	0xf0, 0x40, 0xf5, 0xbc, 0x5b, 0xba, 0x1e, 0xbe, 0x4f, 0x18, 0x55, 0x3e, 
	0x22, 0x6f, 0x83, 0x3d, 0x98, 0xbb, 0x59, 0xbe, 0xa0, 0xba, 0x32, 0x3e, 
	0x1e, 0x4c, 0x44, 0xbe, 0xc4, 0xa4, 0xd1, 0x3b, 0x30, 0xc5, 0xca, 0xbd, 
	0x44, 0x92, 0xd7, 0xbd, 0xde, 0xf8, 0xba, 0x3d, 0x6d, 0xf9, 0xe7, 0x3d, 
	0xc4, 0x90, 0x5d, 0x3d, 0xb1, 0x56, 0x09, 0x3e, 0x14, 0x2a, 0x7b, 0x3d, 
	0xa9, 0xe6, 0x5e, 0x3e, 0x8f, 0x5d, 0x2a, 0xbd, 0xf2, 0x40, 0x86, 0xbd, 
	0x33, 0xb9, 0xb6, 0xbd, 0x1a, 0x26, 0xea, 0xbd, 0x1c, 0xe2, 0xf4, 0x3d, 
	0xfd, 0x8a, 0x49, 0x3d, 0xe8, 0xfa, 0xf7, 0x3c, 0x78, 0xc1, 0x65, 0xbe, 
	0xac, 0x47, 0x60, 0xbe, 0xcc, 0xcb, 0x75, 0xbe, 0x55, 0x65, 0x77, 0x3e, 
	0x44, 0xec, 0x33, 0x3d, 0xf4, 0xdb, 0xb7, 0xbd, 0xc1, 0xf2, 0x61, 0x3e, 
	0x2b, 0x9a, 0x2c, 0xbd, 0xc5, 0x1d, 0x1f, 0x3e, 0x58, 0x6a, 0x85, 0xbc, 
	0x7c, 0x7f, 0x34, 0xbd, 0xec, 0x14, 0x3b, 0xbe, 0x57, 0xaf, 0xf0, 0xbd, 
	0xcb, 0x5c, 0x90, 0xbd, 0x62, 0xa2, 0x2b, 0xbd, 0xa8, 0x93, 0xfc, 0xbc, 
	0x59, 0xf9, 0x0e, 0x3e, 0xca, 0xa0, 0x96, 0x3d, 0x99, 0x78, 0xa8, 0xbd, 
	0x30, 0xc3, 0x50, 0xbc, 0xfb, 0x3b, 0x5b, 0x3e, 0x1b, 0x0d, 0x4a, 0x3e, 
	0x90, 0x81, 0xa7, 0xbd, 0x5f, 0x1f, 0xa6, 0x3d, 0x38, 0x4d, 0xf1, 0xbd, 
	0x81, 0xb1, 0x66, 0x3e, 0x79, 0x42, 0xda, 0x3d, 0xa7, 0x8a, 0x40, 0xbe, 
	0xa4, 0xb1, 0x8e, 0xbd, 0x88, 0x25, 0xee, 0xbd, 0x94, 0xc6, 0x4e, 0x3d, 
	0xbb, 0x98, 0xd7, 0x3d, 0x50, 0xdf, 0x24, 0x3e, 0x02, 0x22, 0x0b, 0x3c, 
	0xc3, 0xf2, 0x60, 0x3e, 0xb4, 0x56, 0x02, 0xbe, 0xbf, 0xaf, 0x34, 0x3e, 
	0x18, 0x86, 0xcb, 0x3c, 0x34, 0x5b, 0x4a, 0x3e, 0x70, 0x9c, 0x2f, 0x3c, 
	0x83, 0x1d, 0x5b, 0xbe, 0xb0, 0xd0, 0x6a, 0xbc, 0x73, 0xf0, 0xcc, 0xbc, 
	0x5d, 0x7c, 0x00, 0x3c, 0x96, 0x10, 0xaa, 0xbd, 0x06, 0x90, 0x9e, 0x3d, 
	0x6b, 0xad, 0x3e, 0x3e, 0x6a, 0x4f, 0xb5, 0x3d, 0x22, 0x43, 0x12, 0x3e, 
	0x32, 0x19, 0xc9, 0x3d, 0x47, 0xc7, 0x09, 0x3e, 0xb3, 0x93, 0x25, 0x3e, 
	0x07, 0x77, 0x63, 0x3e, 0x3a, 0x9f, 0x25, 0xbe, 0x2c, 0x77, 0x14, 0xbe, 
	0x78, 0x9d, 0x20, 0xbe, 0xad, 0x01, 0x0f, 0x3e, 0x26, 0x37, 0x97, 0xbb, 
	0x28, 0xbf, 0x87, 0xbd, 0x74, 0xfb, 0x33, 0xbe, 0xc3, 0x37, 0x5f, 0x3e, 
	0x98, 0xbd, 0x7d, 0xbe, 0x42, 0x78, 0x77, 0x3e, 0xb7, 0xf5, 0x80, 0x3b, 
	0xd5, 0xc5, 0x3b, 0x3e, 0x2f, 0x76, 0x03, 0x3e, 0x79, 0x68, 0x79, 0x3e, 
	0xc0, 0xf2, 0xf1, 0xbb, 0xd6, 0xa3, 0x3a, 0x3d, 0x23, 0x91, 0x2f, 0x3e, 
	0x46, 0x26, 0xe5, 0x3d, 0xf6, 0x10, 0xa3, 0x3d, 0xc5, 0x38, 0x06, 0x3e, 
	0xf0, 0x7c, 0x01, 0x3e, 0x69, 0x7c, 0xcd, 0x3d, 0x8a, 0xd7, 0xb1, 0x3d, 
	0xbb, 0x92, 0x22, 0xbe, 0x32, 0x9d, 0x87, 0xbd, 0x61, 0x76, 0x29, 0x3e, 
	0xb1, 0x27, 0x54, 0x3e, 0x19, 0x9f, 0x1a, 0x3e, 0x12, 0x6e, 0x44, 0xbe, 
	0x8e, 0x91, 0x47, 0xbd, 0x53, 0xb1, 0xce, 0xbd, 0x1b, 0xd2, 0x31, 0x3d, 
	0x73, 0xab, 0x42, 0x3e, 0x1a, 0xfa, 0xc1, 0x3d, 0xe1, 0x6c, 0x48, 0xbe, 
	0x92, 0x01, 0x34, 0xbe, 0xa8, 0x1c, 0x2f, 0xbd, 0x67, 0xc4, 0x78, 0x3e, 
	0x1b, 0x75, 0x66, 0x3e, 0x53, 0xfb, 0x9b, 0x3c, 0xd9, 0xc4, 0x51, 0xbd, 
	0x48, 0x2d, 0x62, 0xbd, 0x8f, 0xc7, 0x74, 0xbe, 0x28, 0x0c, 0x63, 0xbe, 
	0x35, 0xce, 0x47, 0xbe, 0x36, 0x72, 0x44, 0x3e, 0x4e, 0x12, 0xaa, 0x3d, 
	0x52, 0x3c, 0xbc, 0xbd, 0xc8, 0x7e, 0x58, 0xbe, 0xde, 0x43, 0x22, 0x3e, 
	0x2d, 0x75, 0xfe, 0xbd, 0x04, 0xe2, 0xb5, 0xbd, 0x1b, 0x04, 0x50, 0xbe, 
	0x4e, 0x40, 0xaf, 0xbd, 0xf4, 0x1d, 0xc7, 0x3d, 0x84, 0x1a, 0x4f, 0xbe, 
	0x57, 0x86, 0x0b, 0x3e, 0xe0, 0x18, 0xeb, 0x3b, 0x88, 0xdf, 0x2a, 0xbe, 
	0xec, 0x4d, 0x47, 0x3e, 0xa0, 0xa4, 0x0a, 0x3d, 0xac, 0xf4, 0xbe, 0x3d, 
	0xd0, 0x52, 0x85, 0xbc, 0xa2, 0xbc, 0xc7, 0x3d, 0x6c, 0xc7, 0x6d, 0x3d, 
	0xa6, 0xd4, 0xdd, 0x3d, 0xcf, 0x73, 0x62, 0x3e, 0xa3, 0x12, 0x28, 0x3e, 
	0x2e, 0x90, 0xd1, 0x3d, 0x3f, 0x2a, 0x4c, 0x3e, 0x29, 0xdb, 0x9f, 0xbc, 
	0x1b, 0x20, 0x53, 0x3c, 0x66, 0x80, 0xcc, 0x3d, 0xa3, 0xe2, 0x8d, 0xbc, 
	0x09, 0x20, 0x11, 0x3e, 0x92, 0xbf, 0xec, 0x3d, 0xf5, 0xd7, 0x07, 0x3e, 
	0xd0, 0xaa, 0x6d, 0xbe, 0x76, 0x36, 0x28, 0x3d, 0x99, 0x31, 0x54, 0x3e, 
	0x76, 0xb8, 0x19, 0x3e, 0x5d, 0x6c, 0xbe, 0x3d, 0x7a, 0x72, 0xb6, 0x3d, 
	0xa6, 0x1e, 0x85, 0x3d, 0x06, 0x21, 0xd1, 0xbd, 0x42, 0xe8, 0x08, 0xbe, 
	0x9a, 0x6e, 0x3e, 0xbe, 0x90, 0xbf, 0x27, 0xbe, 0x5c, 0x96, 0xe1, 0xbd, 
	0x5c, 0x8c, 0xce, 0xbc, 0x00, 0x74, 0x1b, 0xbe, 0xd8, 0x18, 0x04, 0xbe, 
	0xb6, 0xc1, 0x5d, 0x3e, 0xa1, 0x7b, 0x3d, 0x3e, 0x60, 0xca, 0xaa, 0xbd, 
	0x38, 0x97, 0x25, 0x3d, 0x00, 0xcf, 0xed, 0xbc, 0xb0, 0x4e, 0xe2, 0xbd, 
	0xec, 0xde, 0x21, 0xbe, 0x89, 0x09, 0x5c, 0xbe, 0xac, 0x31, 0x5e, 0x3d, 
	0xa4, 0x01, 0xdc, 0xbd, 0x72, 0x8c, 0x2e, 0xbe, 0xf5, 0x6b, 0x70, 0x3e, 
	0x5b, 0xe1, 0x80, 0xbd, 0x70, 0x5b, 0x55, 0xbc, 0x5c, 0x21, 0x78, 0xbe, 
	0xd0, 0xd9, 0x35, 0x3c, 0xc0, 0x5e, 0x14, 0xbc, 0xe8, 0x9d, 0x29, 0xbe, 
	0x8e, 0x45, 0xb4, 0x3d, 0x6b, 0x4b, 0x09, 0x3e, 0x6c, 0x45, 0xbf, 0xbd, 
	0x00, 0x79, 0xc7, 0xbc, 0x26, 0xc9, 0xe9, 0x3d, 0x7d, 0x30, 0x14, 0x3e, 
	0x7d, 0xcd, 0x74, 0x3e, 0x86, 0x04, 0xb9, 0xbd, 0x64, 0x23, 0x61, 0xbd, 
	0xb8, 0x72, 0x8c, 0x3c, 0x13, 0xf4, 0x64, 0x3e, 0xdf, 0x5c, 0x35, 0x3e, 
	0x5f, 0xcd, 0x41, 0xbe, 0xa6, 0xbf, 0x29, 0xbe, 0xa8, 0x63, 0xda, 0xbc, 
	0x5c, 0x24, 0x49, 0xbe, 0xd6, 0xee, 0x6e, 0xbe, 0x49, 0x9e, 0x27, 0x3e, 
	0x50, 0x74, 0x7a, 0x3c, 0x1f, 0xfa, 0x27, 0x3e, 0x75, 0x64, 0x2c, 0x3e, 
	0xd8, 0x06, 0xdc, 0x3c, 0x49, 0x74, 0x3a, 0x3e, 0xc0, 0xf9, 0x1e, 0xbc, 
	0x11, 0x87, 0x67, 0x3e, 0x62, 0xcc, 0x08, 0xbe, 0x02, 0x47, 0xcb, 0xbd, 
	0x86, 0xa7, 0x8a, 0x3d, 0xab, 0x44, 0x7a, 0xbe, 0x68, 0x05, 0x5e, 0xbe, 
	0x20, 0xba, 0x53, 0xbe, 0xe4, 0x7a, 0x1b, 0xbe, 0x32, 0x96, 0x76, 0xbe, 
	0x5e, 0x64, 0x93, 0xbd, 0xca, 0x02, 0x4a, 0xbe, 0xa2, 0x05, 0x3b, 0xbe, 
	0xdc, 0x2a, 0x54, 0x3d, 0x53, 0x53, 0x77, 0x3e, 0x90, 0xaa, 0x7f, 0x3c, 
	0x5d, 0xc0, 0x06, 0x3e, 0xe9, 0xb4, 0x4f, 0xbe, 0xe2, 0xbb, 0x1d, 0xbe, 
	0x34, 0xe1, 0x44, 0x3d, 0xdb, 0xc6, 0x1a, 0x3e, 0xea, 0x51, 0x46, 0xbe, 
	0x88, 0xc2, 0xb3, 0xbd, 0x77, 0x24, 0x34, 0x3e, 0x48, 0xe7, 0x6b, 0xbe, 
	0x18, 0xe8, 0xc2, 0x3c, 0x7c, 0x41, 0x66, 0x3d, 0xdf, 0xba, 0x6b, 0x3e, 
	0x36, 0x50, 0xee, 0xbd, 0xce, 0x63, 0x9b, 0xbd, 0xe8, 0xbf, 0x01, 0xbe, 
	0x53, 0xa1, 0x19, 0x3e, 0xb4, 0x2b, 0x76, 0xbe, 0x12, 0xbb, 0xeb, 0xbd, 
	0xeb, 0x42, 0x51, 0x3e, 0x44, 0xa9, 0x0e, 0xbe, 0xb5, 0xbf, 0x43, 0x3e, 
	0x67, 0x4b, 0x09, 0x3e, 0x7a, 0xd3, 0x59, 0xbe, 0x85, 0xb9, 0x41, 0x3e, 
	0xf9, 0x9e, 0x50, 0x3e, 0x41, 0xc6, 0x34, 0x3e, 0x20, 0xa3, 0xf4, 0xbb, 
	0x90, 0x79, 0x1a, 0xbc, 0x91, 0x4e, 0x3c, 0x3e, 0x1c, 0x19, 0x51, 0xbe, 
	0x48, 0xe9, 0x62, 0xbe, 0x80, 0xba, 0xe1, 0xba, 0xd1, 0x43, 0x2c, 0xbe, 
	0xda, 0x6a, 0x16, 0xbe, 0x5c, 0x03, 0x6e, 0xbd, 0xdd, 0x1d, 0x2d, 0x3e, 
	0xb0, 0xe4, 0xd3, 0xbd, 0x20, 0x97, 0xd8, 0x3b, 0x99, 0xc0, 0x16, 0x3e, 
	0x53, 0x65, 0x4b, 0x3e, 0x22, 0x03, 0x97, 0x3d, 0xc0, 0x96, 0x30, 0x3b, 
	0xce, 0x57, 0xab, 0xbd, 0xca, 0xd1, 0xde, 0x3d, 0xf0, 0x84, 0x0c, 0xbc, 
	0xaa, 0x07, 0x2c, 0xbe, 0x6f, 0x83, 0x14, 0x3e, 0x29, 0xb9, 0x2b, 0xbe, 
	0x7c, 0x5e, 0x04, 0xbe, 0x52, 0xd2, 0xd8, 0x3d, 0x62, 0x83, 0x85, 0x3d, 
	0x48, 0xd5, 0xc6, 0x3c, 0xa0, 0xf8, 0xdc, 0x3b, 0xdc, 0x2e, 0x2a, 0x3d, 
	0xf6, 0x51, 0xfd, 0x3d, 0x8d, 0xf5, 0x3d, 0xbe, 0x48, 0x56, 0x54, 0xbd, 
	0x08, 0x17, 0xb1, 0xbd, 0x1c, 0x8b, 0x3f, 0xbd, 0xdf, 0xd7, 0x11, 0x3e, 
	0xa8, 0x83, 0x49, 0xbd, 0xcc, 0xab, 0x2a, 0x3d, 0x65, 0xbf, 0x5b, 0xbe, 
	0x08, 0x59, 0x2a, 0xbe, 0x1c, 0xa2, 0x6a, 0xbe, 0xff, 0x35, 0x50, 0x3e, 
	0x44, 0x10, 0x14, 0x3d, 0x48, 0x9a, 0xaf, 0x3c, 0x9c, 0x86, 0x54, 0x3d, 
	0x32, 0x72, 0x57, 0xbe, 0xb9, 0x15, 0x0d, 0x3e, 0xfa, 0x91, 0xf5, 0x3d, 
	0x37, 0x67, 0x56, 0x3e, 0x00, 0xe4, 0x90, 0xbc, 0x0e, 0xcb, 0x8e, 0x3d, 
	0x49, 0xad, 0x70, 0xbe, 0xbe, 0x69, 0xb8, 0x3d, 0xf4, 0xfc, 0xa5, 0xbd, 
	0x3e, 0xc7, 0x29, 0xbe, 0xae, 0x8f, 0x5e, 0xbe, 0xf8, 0x31, 0xdd, 0xbc, 
	0xc0, 0xec, 0x3f, 0xbb, 0xc8, 0x37, 0xab, 0xbd, 0x96, 0x6c, 0xf9, 0x3d, 
	0xb5, 0x0d, 0x58, 0x3e, 0xe6, 0x2a, 0xfd, 0x3d, 0x66, 0xc0, 0xb4, 0x3d, 
	0x29, 0x9a, 0x60, 0x3e, 0x80, 0x97, 0xf7, 0xbc, 0x86, 0x72, 0xe6, 0xbd, 
	0x0e, 0xaf, 0xcc, 0xbd, 0xa9, 0x3b, 0x57, 0x3e, 0x90, 0xb9, 0x44, 0xbd, 
	0x3d, 0x7a, 0x75, 0xbe, 0x7b, 0x7a, 0x36, 0x3e, 0x4f, 0xcb, 0x78, 0xbe, 
	0xe0, 0xa9, 0xff, 0xbd, 0x11, 0xe8, 0x16, 0x3e, 0x84, 0xfd, 0x83, 0xbd, 
	0xd8, 0x6f, 0xab, 0x3c, 0x42, 0xcf, 0x07, 0xbe, 0xc8, 0x70, 0x0b, 0xbe, 
	0xb8, 0x7b, 0x42, 0xbd, 0x79, 0xf2, 0x72, 0xbe, 0x0c, 0x08, 0x4c, 0xbe, 
	0xc6, 0x40, 0xea, 0x3d, 0xae, 0x30, 0x33, 0xbe, 0x1a, 0x8a, 0xda, 0x3d, 
	0x4f, 0x8d, 0x0e, 0x3e, 0x3b, 0xcc, 0x39, 0xbe, 0x0e, 0xcc, 0x46, 0xbe, 
	0x99, 0x01, 0x23, 0x3e, 0x1f, 0x12, 0xb5, 0xbd, 0xa8, 0x2a, 0xf1, 0x3c, 
	0x40, 0xff, 0xc2, 0xbc, 0x50, 0xba, 0x63, 0xbe, 0xde, 0x08, 0x72, 0xbe, 
	0x3a, 0x5f, 0x1b, 0xbe, 0xe8, 0xdd, 0x41, 0xbd, 0x98, 0xc6, 0xb0, 0xbd, 
	0x1e, 0xe2, 0x85, 0xbd, 0xdb, 0x5f, 0x4b, 0xbe, 0x47, 0xea, 0x14, 0x3e, 
	0xf6, 0xd9, 0xc3, 0x3d, 0x05, 0xd6, 0x53, 0x3e, 0x53, 0x65, 0x60, 0xbe, 
	0x6d, 0x81, 0x6a, 0x3e, 0x03, 0x96, 0x61, 0x3e, 0xd5, 0x95, 0x64, 0x3e, 
	0x76, 0x9b, 0x19, 0x3e, 0x37, 0x99, 0xbb, 0xbd, 0xc1, 0x27, 0x2d, 0xbe, 
	0x8f, 0x57, 0x2a, 0x3e, 0x20, 0xfd, 0x3c, 0xbc, 0x2e, 0x5e, 0x91, 0x3d, 
	0xeb, 0xb5, 0x5b, 0xbe, 0x3f, 0xc7, 0xbf, 0xbd, 0x77, 0xe1, 0x5e, 0x3e, 
	0xa8, 0x7d, 0xc6, 0x3c, 0x84, 0x2b, 0x64, 0x3d, 0x1f, 0x40, 0xd5, 0x3d, 
	0x4a, 0x1b, 0x5f, 0x3e, 0x57, 0xa2, 0x0c, 0xbe, 0x1a, 0x7a, 0xd0, 0x3d, 
	0xb8, 0x08, 0xa8, 0xbc, 0xdf, 0x83, 0xc4, 0x3d, 0x5e, 0x00, 0xdf, 0x3d, 
	0x47, 0xa6, 0x0c, 0x3e, 0xeb, 0x7d, 0x63, 0xbe, 0x4f, 0x43, 0x67, 0xbe, 
	0x1b, 0xb8, 0x57, 0x3e, 0xde, 0x87, 0x5b, 0xbe, 0x10, 0x81, 0x75, 0x3c, 
	0x40, 0x0c, 0x0e, 0xbb, 0x86, 0x6e, 0xdf, 0xbd, 0x12, 0xb1, 0xe3, 0xbd, 
	0x62, 0x24, 0xf3, 0x3d, 0xb4, 0xed, 0x2e, 0x3d, 0x5a, 0xc1, 0xc5, 0x3d, 
	0xff, 0xbe, 0xd9, 0x3d, 0x23, 0x37, 0x17, 0xbe, 0x23, 0xb1, 0x3c, 0xbd, 
	0x34, 0xe9, 0xdf, 0xbd, 0x80, 0xbe, 0xfd, 0x3a, 0xee, 0x78, 0x07, 0xbe, 
	0x2d, 0x56, 0x2f, 0x3e, 0x63, 0x4f, 0x7b, 0x3d, 0x07, 0x18, 0x79, 0x3e, 
	0xc9, 0x25, 0x65, 0x3e, 0xf2, 0x9f, 0x9c, 0xbd, 0x6c, 0x19, 0xa3, 0xbd, 
	0xab, 0x25, 0x83, 0x3c, 0x03, 0x86, 0xbb, 0x3d, 0x80, 0x8d, 0x99, 0xba, 
	0x38, 0x8f, 0x02, 0x3e, 0x5b, 0x8f, 0x76, 0x3e, 0x2a, 0x0e, 0xa9, 0xbd, 
	0x5d, 0x09, 0x40, 0x3e, 0x58, 0x13, 0xe5, 0xbc, 0x6f, 0x27, 0x8b, 0x3d, 
	0xfb, 0xc7, 0x6a, 0x3d, 0xef, 0x05, 0x15, 0x3e, 0x11, 0x70, 0x95, 0x3b, 
	0x1c, 0x46, 0x18, 0x3d, 0xd2, 0xfc, 0x96, 0x3d, 0x7e, 0xed, 0x8a, 0x3d, 
	0xdb, 0x42, 0x4c, 0x3e, 0x36, 0x7c, 0xb5, 0x3d, 0x5a, 0xf2, 0xfe, 0x3d, 
	0x80, 0xfd, 0x62, 0xbc, 0xa7, 0x30, 0x4f, 0x3d, 0x49, 0x22, 0x75, 0xbe, 
	0x84, 0x7a, 0x7b, 0x3d, 0x87, 0x3d, 0x78, 0xbe, 0x1a, 0x14, 0xb6, 0xbd, 
	0x33, 0xc6, 0x17, 0xbe, 0x49, 0xe4, 0xad, 0x3d, 0xdb, 0x0e, 0x3e, 0xbe, 
	0xde, 0x73, 0xbc, 0x3d, 0x50, 0xbe, 0x07, 0xbe, 0xf5, 0xad, 0xec, 0x3d, 
	0x0d, 0xa7, 0x04, 0xbe, 0x4d, 0x3b, 0x02, 0xbe, 0x5c, 0x18, 0x73, 0x3d, 
	0xc0, 0xc4, 0x4d, 0x3b, 0x46, 0x9c, 0x8c, 0xbb, 0x61, 0xa1, 0x1a, 0x3e, 
	0xc2, 0xe6, 0xcf, 0x3d, 0x99, 0x67, 0x05, 0x3e, 0x56, 0x92, 0x98, 0x3d, 
	0xc0, 0xcc, 0x64, 0xbe, 0x6a, 0x4e, 0x48, 0xbe, 0x76, 0x2f, 0x1a, 0xbe, 
	0x7b, 0x0b, 0x42, 0x3e, 0xa0, 0x14, 0xf4, 0x3b, 0xa0, 0x55, 0x0e, 0xbc, 
	0x36, 0x4d, 0xb6, 0xbd, 0x43, 0xf3, 0x40, 0x3e, 0x6a, 0xa7, 0xf7, 0x3d, 
	0x70, 0x98, 0xc3, 0xbd, 0xbc, 0xb7, 0x12, 0xbd, 0x82, 0x12, 0x69, 0xbe, 
	0x38, 0x25, 0xd9, 0xbc, 0x10, 0xb8, 0x3a, 0x3c, 0x80, 0xf7, 0xdc, 0xbb, 
	0x08, 0x94, 0x6f, 0xbd, 0x04, 0x50, 0x39, 0x3d, 0xc7, 0x57, 0x4d, 0x3e, 
	0xa8, 0x13, 0xb8, 0xbc, 0xb0, 0x60, 0x5a, 0xbe, 0x70, 0x45, 0x31, 0x3c, 
	0x78, 0x51, 0x7e, 0xbd, 0xd8, 0xc9, 0x69, 0xbd, 0x0d, 0xdd, 0x6b, 0x3e, 
	0x4c, 0x3e, 0x72, 0xbe, 0x90, 0x2a, 0x56, 0xbe, 0xf4, 0x5b, 0x3e, 0xbe, 
	0x52, 0xb4, 0xa4, 0xbd, 0xa2, 0xa9, 0x7a, 0xbe, 0x47, 0x09, 0x00, 0x3e, 
	0xe4, 0xcb, 0x5e, 0xbe, 0x2e, 0x17, 0xcb, 0x3d, 0xc4, 0xe9, 0x39, 0xbe, 
	0xa0, 0xd3, 0xe0, 0xbb, 0xe2, 0xe8, 0x39, 0xbe, 0x58, 0x43, 0x0b, 0xbd, 
	0xc2, 0xf0, 0x9f, 0x3d, 0xfe, 0xb0, 0x35, 0xbe, 0xc1, 0x7d, 0x4a, 0xbe, 
	0xe5, 0x55, 0x2b, 0x3e, 0xe1, 0xa5, 0x36, 0x3e, 0x61, 0x9c, 0x16, 0x3e, 
	0x94, 0x56, 0x73, 0xbe, 0xf9, 0x9f, 0x44, 0xbe, 0x3e, 0x72, 0x92, 0x3d, 
	0xc8, 0x12, 0x3f, 0xbd, 0x22, 0xe1, 0x8e, 0x3d, 0x31, 0xab, 0x52, 0x3e, 
	0x8c, 0xdd, 0x36, 0xbe, 0xf5, 0xf8, 0x6f, 0xbe, 0x81, 0x24, 0x79, 0x3e, 
	0x2a, 0xdb, 0xd5, 0xbd, 0x86, 0x81, 0x7a, 0xbe, 0x4d, 0x70, 0x52, 0xbe, 
	0x53, 0x62, 0x23, 0x3e, 0xe1, 0x8e, 0x61, 0x3e, 0xdb, 0x80, 0x71, 0x3e, 
	0x54, 0xd1, 0x4d, 0x3d, 0x08, 0x0b, 0x38, 0xbe, 0x60, 0xb5, 0x06, 0xbc, 
	0xae, 0x2b, 0xdc, 0x3d, 0x53, 0xec, 0x04, 0x3e, 0x0e, 0x25, 0x17, 0xbe, 
	0x0b, 0xf4, 0x2c, 0x3e, 0xe3, 0x19, 0x41, 0xbe, 0x3a, 0x2d, 0xae, 0x3d, 
	0x10, 0xf5, 0x54, 0xbc, 0x3c, 0xd8, 0x2f, 0xbe, 0x58, 0xc1, 0x36, 0xbe, 
	0x48, 0xd5, 0xb4, 0xbc, 0xc2, 0x79, 0xcf, 0x3d, 0x78, 0x80, 0x38, 0xbe, 
	0x61, 0x5e, 0x18, 0xbe, 0xd0, 0x6c, 0x3a, 0xbd, 0xd2, 0xa4, 0xc7, 0xbd, 
	0xa6, 0xaf, 0xd0, 0xbd, 0xa4, 0xd9, 0x65, 0xbe, 0x10, 0xd0, 0x16, 0xbe, 
	0xf5, 0xec, 0x71, 0x3e, 0x1c, 0x4d, 0x05, 0xbe, 0x93, 0xdf, 0x1e, 0x3e, 
	0x88, 0xb6, 0xc9, 0x3c, 0x8c, 0xc5, 0x79, 0xbd, 0x38, 0xf3, 0xc7, 0xbc, 
	0xda, 0x50, 0xb5, 0x3d, 0xf6, 0x72, 0x9a, 0x3d, 0x28, 0x14, 0x25, 0xbe, 
	0x9f, 0x6e, 0x6f, 0x3e, 0x30, 0xf5, 0x3f, 0xbe, 0x7c, 0xf4, 0x26, 0x3d, 
	0x1b, 0xd3, 0x73, 0xbe, 0xc0, 0x13, 0x09, 0xbd, 0x55, 0x68, 0x3b, 0x3e, 
	0x45, 0xdd, 0x49, 0x3e, 0x03, 0xb1, 0x23, 0xbe, 0x4c, 0x6d, 0x79, 0x3d, 
	0x77, 0xb3, 0x40, 0x3e, 0x1c, 0xf6, 0x56, 0x3d, 0x78, 0xe4, 0x02, 0xbe, 
	0x4f, 0x28, 0x44, 0xbe, 0x10, 0x1a, 0xdc, 0x3d, 0xfa, 0x5b, 0x47, 0xbd, 
	0xdd, 0x31, 0xdc, 0x3d, 0x72, 0xe8, 0xdb, 0x3d, 0xeb, 0xc0, 0x73, 0xbe, 
	0x73, 0x52, 0x25, 0x3e, 0xdb, 0xfc, 0xd6, 0x3d, 0x71, 0x81, 0x50, 0xbe, 
	0x20, 0xee, 0xbd, 0xbc, 0xb7, 0x04, 0x1a, 0x3e, 0x38, 0x62, 0x87, 0x3c, 
	0xaf, 0x12, 0x06, 0xbc, 0x25, 0x9d, 0xf7, 0xbb, 0x5c, 0xa2, 0x5c, 0x3d, 
	0xc5, 0x5c, 0xee, 0xbc, 0x00, 0xd5, 0x1d, 0xbd, 0x93, 0x19, 0x23, 0x3e, 
	0xd9, 0x4c, 0x18, 0x3e, 0x7f, 0x14, 0x47, 0x3e, 0x36, 0x92, 0xd2, 0x3d, 
	0x4f, 0xf8, 0x31, 0x3e, 0x00, 0x02, 0x56, 0x3e, 0xda, 0xb6, 0x52, 0x3e, 
	0x88, 0xc2, 0x9f, 0xbc, 0xc7, 0xe5, 0x70, 0x3e, 0x1b, 0xd2, 0x4f, 0xbe, 
	0x1d, 0xbc, 0x44, 0xbd, 0x6b, 0xac, 0x4a, 0x3e, 0x00, 0xf6, 0xe3, 0xbc, 
	0x3c, 0x92, 0x0d, 0xbe, 0x56, 0xe9, 0x21, 0x3e, 0x98, 0xe6, 0x3f, 0x3e, 
	0x56, 0x4d, 0x59, 0xbe, 0x76, 0xca, 0x26, 0xbe, 0xdc, 0xa4, 0x60, 0x3d, 
	0xac, 0xd1, 0xea, 0x3c, 0x60, 0xfc, 0x42, 0xbe, 0x23, 0xfc, 0x0a, 0x3e, 
	0x23, 0x78, 0x15, 0xbe, 0x20, 0xe3, 0x69, 0xbe, 0x31, 0x8a, 0x29, 0x3e, 
	0x98, 0x79, 0x25, 0xbd, 0xfb, 0x4c, 0x79, 0x3e, 0xf1, 0xbb, 0x21, 0x3e, 
	0x08, 0x08, 0x40, 0xbe, 0x9d, 0x1a, 0xa1, 0x3c, 0x52, 0xe4, 0x87, 0x3d, 
	0x94, 0x22, 0x21, 0x3d, 0x1b, 0xc1, 0x5a, 0x3e, 0x0f, 0x4a, 0x9d, 0xbd, 
	0xf7, 0x25, 0xdc, 0x3d, 0x7b, 0xa5, 0x28, 0x3e, 0x06, 0x96, 0x4d, 0xbe, 
	0x06, 0x11, 0xae, 0x3d, 0x85, 0xa0, 0x78, 0xbe, 0xb2, 0x67, 0xe2, 0x3d, 
	0x21, 0x06, 0x0f, 0x3e, 0x2d, 0xfd, 0x74, 0x3e, 0x81, 0xbd, 0x2a, 0x3e, 
	0x61, 0xc3, 0x69, 0x3e, 0xee, 0x73, 0x1e, 0xbe, 0x6f, 0x45, 0x6e, 0x3d, 
	0x1a, 0xec, 0x74, 0xbe, 0xdf, 0xee, 0x5c, 0x3e, 0x55, 0x73, 0x89, 0x3d, 
	0x6b, 0xf8, 0x76, 0x3e, 0x74, 0xa2, 0x75, 0x3d, 0xa0, 0x6e, 0x1f, 0xbd, 
	0xf6, 0xe4, 0xfc, 0xbd, 0xbb, 0x44, 0x82, 0x3a, 0xa5, 0x20, 0xb0, 0xbd, 
	0x93, 0xe0, 0xbb, 0xbd, 0xe8, 0x99, 0x4c, 0x3e, 0x42, 0x71, 0xe4, 0x3d, 
	0x80, 0x49, 0x28, 0xbd, 0xaa, 0x63, 0x92, 0xbd, 0xba, 0xc2, 0x68, 0xbe, 
	0xb0, 0x6f, 0x3e, 0xbe, 0x25, 0xc8, 0x01, 0x3e, 0xba, 0x8d, 0x1d, 0xbe, 
	0x97, 0x92, 0x80, 0x3c, 0xc4, 0x71, 0xfa, 0xbd, 0xc0, 0x7b, 0x4b, 0xbe, 
	0x81, 0x53, 0x0d, 0xbd, 0xa0, 0x02, 0x9c, 0xbd, 0xfa, 0x2c, 0x28, 0x3e, 
	0xa9, 0x4a, 0xaf, 0x3c, 0x48, 0xec, 0x1e, 0xbe, 0x43, 0x43, 0x66, 0xbe, 
	0x08, 0x3c, 0xa4, 0xbc, 0x73, 0x46, 0x9e, 0x3d, 0x58, 0xf0, 0x77, 0xbd, 
	0x78, 0x74, 0x70, 0xbd, 0x2e, 0x1f, 0xce, 0x3d, 0x1c, 0x74, 0x29, 0x3d, 
	0xb7, 0x87, 0x1e, 0x3e, 0x22, 0x15, 0xff, 0x3d, 0xf3, 0xa5, 0x05, 0x3e, 
	0xa1, 0x73, 0x26, 0xbe, 0x8c, 0xc9, 0x2d, 0xbe, 0xca, 0xf1, 0xdf, 0xbd, 
	0x9c, 0x05, 0x97, 0xbd, 0x37, 0xd8, 0x1c, 0x3e, 0xc6, 0x2d, 0xe4, 0x3d, 
	0x55, 0xd3, 0x57, 0x3e, 0xe8, 0x2a, 0xa8, 0x3c, 0x86, 0xf3, 0x27, 0xbe, 
	0x8a, 0xc4, 0xed, 0x3d, 0xae, 0x2b, 0x80, 0x3d, 0x29, 0x19, 0x73, 0x3e, 
	0x0c, 0x10, 0x5e, 0xbe, 0xb2, 0xea, 0x0d, 0xbe, 0xff, 0x0a, 0x5e, 0xbe, 
	0xcd, 0xa6, 0x38, 0x3e, 0xbf, 0x9d, 0x56, 0xbe, 0x95, 0x9d, 0x5f, 0x3e, 
	0xb5, 0xe6, 0x25, 0x3e, 0x0d, 0xbe, 0x22, 0x3e, 0xb4, 0xd4, 0xe0, 0xbd, 
	0x39, 0x97, 0x56, 0x3e, 0xf8, 0xa6, 0xcc, 0xbd, 0xdc, 0x21, 0x0b, 0xbe, 
	0xa0, 0x42, 0x72, 0xbd, 0xe1, 0xb5, 0x5e, 0x3e, 0x73, 0x5e, 0x5a, 0x3e, 
	0xbd, 0xe8, 0x1d, 0x3e, 0x82, 0x1f, 0x36, 0xbe, 0x6a, 0xa9, 0x72, 0xbe, 
	0xbd, 0xc3, 0x6f, 0x3e, 0x56, 0xee, 0xe2, 0xbd, 0x0b, 0xc4, 0x36, 0x3e, 
	0xc3, 0xc7, 0x43, 0x3e, 0xbb, 0xec, 0x0c, 0x3e, 0x6c, 0x1e, 0x32, 0x3d, 
	0xb2, 0x7b, 0x87, 0x3d, 0x70, 0x8a, 0x30, 0xbd, 0x14, 0xd1, 0x41, 0xbe, 
	0xa0, 0x3d, 0x7a, 0xbd, 0x33, 0x1d, 0x21, 0x3e, 0x80, 0x7e, 0x20, 0xbc, 
	0x81, 0x13, 0x56, 0xbe, 0x06, 0x44, 0x51, 0xbe, 0x54, 0x6d, 0x5c, 0xbd, 
	0x40, 0xd8, 0x81, 0xbd, 0xb4, 0xac, 0xb5, 0xbd, 0xe8, 0xec, 0x4c, 0xbd, 
	0xe1, 0x78, 0x0a, 0x3e, 0x89, 0x24, 0x17, 0x3e, 0x5e, 0x57, 0x3a, 0xbe, 
	0x10, 0x41, 0x64, 0xbd, 0xa7, 0x14, 0x12, 0x3e, 0x12, 0xf5, 0xab, 0x3d, 
	0x78, 0x26, 0xcb, 0xbc, 0xa6, 0xaa, 0xb3, 0xbd, 0xb9, 0x8c, 0x28, 0x3e, 
	0x02, 0xf2, 0x92, 0xbd, 0xd5, 0xab, 0x4f, 0x3e, 0x86, 0x1e, 0x81, 0x3d, 
	0x83, 0x50, 0x3a, 0x3e, 0x1e, 0x0e, 0xc8, 0xbd, 0x5a, 0x9b, 0x6d, 0xbe, 
	0xec, 0x70, 0x48, 0xbe, 0xe5, 0xb0, 0x6e, 0xbe, 0x86, 0x91, 0x86, 0x3d, 
	0x32, 0xe4, 0xf0, 0x3d, 0x0d, 0xc2, 0x30, 0x3e, 0x12, 0x9c, 0xf6, 0x3d, 
	0x6c, 0x9f, 0x4b, 0xbe, 0xaa, 0xeb, 0xfa, 0x3d, 0x3e, 0x43, 0xbf, 0x3d, 
	0x18, 0x0b, 0xfd, 0xbc, 0x44, 0x6e, 0x4e, 0xbd, 0x28, 0x6e, 0xeb, 0x3c, 
	0x17, 0x1c, 0x41, 0x3e, 0x17, 0xf1, 0x20, 0xbe, 0x51, 0x3c, 0x5c, 0x3e, 
	0xea, 0xc9, 0xa9, 0x3d, 0xb0, 0xa3, 0xfe, 0xbd, 0x88, 0x17, 0xc3, 0x3c, 
	0xd4, 0xe5, 0x0e, 0x3d, 0xe6, 0x6d, 0x97, 0xbd, 0xd0, 0x6a, 0x5f, 0x3c, 
	0x3d, 0x04, 0x1a, 0x3e, 0x9c, 0x31, 0x1b, 0x3d, 0x80, 0xda, 0x0f, 0xbb, 
	0xda, 0x17, 0xb9, 0x3d, 0xfc, 0x04, 0x38, 0xbe, 0x7d, 0x93, 0x19, 0xbe, 
	0x22, 0x80, 0xc6, 0xbd, 0x91, 0x5d, 0x39, 0xbe, 0xae, 0x0e, 0xcf, 0xbd, 
	0xe0, 0x01, 0x63, 0xbc, 0x86, 0xab, 0xe1, 0xbd, 0x80, 0x45, 0x22, 0xbb, 
	0x88, 0x62, 0x27, 0xbe, 0x64, 0xab, 0xec, 0xbd, 0x7e, 0x0b, 0x88, 0x3d, 
	0x53, 0x3e, 0x41, 0x3e, 0x03, 0x80, 0x59, 0x3e, 0xd6, 0x62, 0xe6, 0xbc, 
	0x92, 0x59, 0x1a, 0x3e, 0xba, 0x08, 0x59, 0xbe, 0xed, 0x37, 0x37, 0x3d, 
	0x84, 0x5b, 0x18, 0x3d, 0xeb, 0x8e, 0x58, 0x3e, 0xc2, 0xc6, 0xa4, 0x3d, 
	0xef, 0xe9, 0x50, 0x3e, 0x9e, 0xa8, 0xcc, 0x3d, 0x8c, 0xd3, 0x00, 0x3d, 
	0x26, 0xaa, 0x1b, 0xbe, 0x8c, 0x0b, 0x21, 0xbd, 0xaa, 0x26, 0xab, 0xba, 
	0xe6, 0xfd, 0x2d, 0xbe, 0x7f, 0x52, 0x24, 0x3e, 0xb8, 0xeb, 0x30, 0x3e, 
	0x9f, 0xe5, 0x26, 0xbe, 0x45, 0x9c, 0x03, 0x3e, 0x88, 0x29, 0x2c, 0xbe, 
	0xda, 0xc9, 0x8b, 0xbd, 0x58, 0xea, 0xa4, 0x3c, 0xc6, 0x8c, 0x57, 0xbd, 
	0x4a, 0xb7, 0x86, 0x3d, 0x30, 0xb2, 0x35, 0xbd, 0xe5, 0x4b, 0x65, 0x3e, 
	0x96, 0x30, 0xb9, 0xbd, 0x49, 0xcf, 0xfd, 0xbd, 0xef, 0xe8, 0x20, 0x3e, 
	0x26, 0x7f, 0xb8, 0x3d, 0x50, 0x1d, 0xc5, 0xbc, 0xed, 0x20, 0x47, 0x3e, 
	0x3c, 0xd5, 0x0d, 0x3e, 0xd2, 0xdc, 0x1e, 0x3e, 0xec, 0x74, 0xc4, 0xbd, 
	0x11, 0x2f, 0xaf, 0x3c, 0xe0, 0xf9, 0x93, 0xbb, 0x6d, 0x50, 0x7f, 0xbe, 
	0xe7, 0xe9, 0x1f, 0xbe, 0x5e, 0x57, 0xb1, 0x3d, 0x5a, 0x8d, 0x06, 0xbe, 
	0x36, 0x6b, 0xcd, 0x3d, 0x10, 0xfd, 0xc6, 0xbd, 0x42, 0x92, 0xfa, 0xbd, 
	0xe6, 0x4d, 0xf3, 0x3d, 0x78, 0xc6, 0xdf, 0x3c, 0x3c, 0xad, 0x03, 0xbe, 
	0xa1, 0xe3, 0x91, 0x3c, 0x2b, 0xf5, 0x5f, 0xbe, 0x50, 0xb3, 0x13, 0x3c, 
	0x04, 0x5f, 0x3d, 0x3d, 0x3d, 0x9b, 0x04, 0x3e, 0xbb, 0x99, 0x4f, 0xbe, 
	0x01, 0xbc, 0x7b, 0x3e, 0xdd, 0x9c, 0x69, 0x3e, 0xdf, 0x5d, 0x68, 0xbe, 
	0x43, 0xaf, 0x20, 0x3e, 0xb4, 0x7b, 0x45, 0x3d, 0xaa, 0xf7, 0x6b, 0x3e, 
	0xc3, 0x9a, 0x0d, 0x3e, 0x17, 0xbe, 0x18, 0x3e, 0x53, 0xa9, 0x1a, 0x3e, 
	0x36, 0x9c, 0xfc, 0x3d, 0xfd, 0x51, 0x72, 0xbe, 0x9a, 0x3a, 0xe1, 0x3d, 
	0x34, 0x90, 0x2a, 0xbe, 0x4d, 0xc6, 0x8a, 0xbd, 0x18, 0xee, 0xaf, 0xbd, 
	0x89, 0xc4, 0x04, 0x3e, 0xae, 0x81, 0xbe, 0x3d, 0x97, 0x73, 0x44, 0x3e, 
	0x2c, 0x8c, 0x49, 0xbd, 0xf8, 0x4d, 0xcd, 0xbd, 0xb3, 0x10, 0xd1, 0x3c, 
	0x00, 0x49, 0x57, 0x3e, 0x70, 0xd6, 0x3b, 0xbc, 0x86, 0x0b, 0xf2, 0x3d, 
	0x84, 0x34, 0x14, 0x3d, 0xaf, 0x65, 0x22, 0xbc, 0xf7, 0x53, 0x66, 0x3e, 
	0xc8, 0x81, 0x9d, 0xbd, 0x8d, 0xfa, 0x55, 0xbe, 0xdf, 0x63, 0x16, 0x3e, 
	0x78, 0x8e, 0x6f, 0x3d, 0xeb, 0x96, 0x56, 0x3e, 0xd3, 0xea, 0x8e, 0x3d, 
	0xee, 0xa0, 0x9f, 0x3d, 0xa5, 0x24, 0xcc, 0xbd, 0xc8, 0x31, 0xa6, 0xbd, 
	0xe4, 0xb1, 0x2f, 0x3d, 0xda, 0x16, 0xb0, 0x3d, 0x37, 0x81, 0x5e, 0x3e, 
	0x37, 0xa5, 0x26, 0x3d, 0xf0, 0x35, 0x18, 0xbd, 0xbc, 0xee, 0x1f, 0xbd, 
	0x97, 0x7f, 0x79, 0xbe, 0x80, 0xe2, 0x92, 0x3a, 0xfb, 0x48, 0x63, 0x3e, 
	0x3e, 0x69, 0xe5, 0xbd, 0x01, 0xb5, 0x01, 0x3e, 0x23, 0x60, 0x2a, 0x3e, 
	0xbc, 0x0a, 0x08, 0xbe, 0x62, 0x4f, 0xa7, 0x3d, 0x27, 0x00, 0x1a, 0x3e, 
	0xed, 0x73, 0x07, 0xbe, 0x54, 0xf6, 0x06, 0xbe, 0xb4, 0x8f, 0x36, 0x3d, 
	0x28, 0x0c, 0x9a, 0xbc, 0xd0, 0x4e, 0xa0, 0xbd, 0x72, 0x85, 0x54, 0xbe, 
	0x39, 0xe2, 0x47, 0x3e, 0x69, 0xfa, 0x48, 0x3e, 0xd2, 0xc6, 0x05, 0xbe, 
	0xda, 0x80, 0xa2, 0x3d, 0xd2, 0xe0, 0x28, 0xbe, 0x08, 0x08, 0xd6, 0x3c, 
	0xfa, 0xa8, 0x46, 0xbe, 0x59, 0x74, 0x0c, 0x3e, 0x48, 0x09, 0x73, 0xbd, 
	0xc8, 0xc7, 0x09, 0xbe, 0x46, 0x1e, 0xfc, 0x3d, 0x60, 0xe8, 0x30, 0xbd, 
	0xc5, 0x90, 0x4b, 0xbe, 0x4f, 0xb8, 0x71, 0x3e, 0xe4, 0x07, 0x00, 0xbd, 
	0xe4, 0xa2, 0x6a, 0xbe, 0xfc, 0xe8, 0x60, 0x3d, 0x97, 0x7b, 0x19, 0xbe, 
	0xde, 0xac, 0xbc, 0x3d, 0x54, 0x58, 0x60, 0xbe, 0xec, 0xb6, 0xd9, 0xbd, 
	0x40, 0x23, 0x10, 0xbe, 0x64, 0xc8, 0x46, 0xbd, 0x27, 0xb3, 0x72, 0xbe, 
	0x5c, 0xdf, 0x21, 0x3d, 0x15, 0x27, 0x1a, 0x3e, 0x3b, 0x46, 0x5f, 0x3e, 
	0x0e, 0x91, 0xc2, 0x3d, 0x83, 0xa5, 0x28, 0xbe, 0xee, 0x0f, 0x88, 0x3d, 
	0xee, 0x4b, 0x2c, 0xbe, 0x44, 0x53, 0xa6, 0xbd, 0xe0, 0x44, 0xcd, 0xbd, 
	0x14, 0x6a, 0x7c, 0x3d, 0x80, 0xa6, 0x40, 0xbe, 0x92, 0x8a, 0x9a, 0x3d, 
	0x40, 0x3c, 0x64, 0xbb, 0x12, 0x3a, 0x8c, 0xbd, 0x45, 0x37, 0x5f, 0x3e, 
	0x50, 0x6a, 0x31, 0xbd, 0x9a, 0xd3, 0xbb, 0x3d, 0xa7, 0x73, 0x09, 0x3e, 
	0x33, 0x7a, 0x3a, 0x3e, 0x7f, 0xc5, 0x74, 0x3e, 0x52, 0x4c, 0x6b, 0xbe, 
	0xd6, 0x13, 0x10, 0xbe, 0x04, 0x7a, 0x71, 0xbe, 0xb4, 0xc7, 0x06, 0x3d, 
	0x2e, 0x2e, 0xe5, 0x3d, 0x7f, 0x21, 0x05, 0xbe, 0x48, 0x62, 0xc6, 0xbd, 
	0xfd, 0x42, 0x75, 0x3e, 0xa4, 0x7f, 0x38, 0xbe, 0x5e, 0x00, 0x2e, 0xbe, 
	0xc9, 0x66, 0x04, 0x3e, 0xde, 0x69, 0x2e, 0xbe, 0xa7, 0x04, 0x5c, 0xbe, 
	0x73, 0x3a, 0x4e, 0xbe, 0xea, 0x18, 0xa8, 0x3d, 0x6e, 0x0c, 0xd6, 0x3d, 
	0x6a, 0x09, 0x48, 0xbe, 0x80, 0xaa, 0x40, 0xbd, 0x70, 0xdb, 0x2f, 0xbc, 
	0x2a, 0x69, 0x9b, 0xbd, 0x94, 0xce, 0x32, 0xbe, 0xfc, 0xc4, 0x52, 0xbd, 
	0xc8, 0xd6, 0x1e, 0xbe, 0x1a, 0x89, 0xcf, 0x3d, 0x74, 0xab, 0x4c, 0x3d, 
	0xdb, 0x16, 0x55, 0xbe, 0xb0, 0x83, 0xd7, 0xbc, 0x10, 0xfe, 0x3d, 0x3c, 
	0x37, 0x6b, 0xf9, 0xbd, 0x1a, 0xca, 0x50, 0xbe, 0x6d, 0x35, 0x60, 0x3e, 
	0xca, 0xd0, 0x27, 0xbe, 0x68, 0x69, 0xb8, 0x3c, 0x5a, 0x71, 0x94, 0xbd, 
	0x50, 0x38, 0xbe, 0xbd, 0x28, 0x85, 0xf1, 0x3c, 0x3f, 0x8d, 0x3d, 0x3e, 
	0xd1, 0xc2, 0x22, 0x3e, 0xa3, 0x92, 0x74, 0x3e, 0x4c, 0xc2, 0x6a, 0xbd, 
	0x80, 0xd2, 0xd4, 0x3a, 0xf8, 0xaa, 0x74, 0xbe, 0xd8, 0xd9, 0x7e, 0xbd, 
	0xc8, 0x3a, 0x2b, 0xbd, 0xb7, 0xa3, 0x4d, 0x3e, 0x3d, 0x50, 0x35, 0xbe, 
	0x34, 0x2e, 0x2e, 0xbd, 0xf5, 0x19, 0x3a, 0x3e, 0xaa, 0xba, 0x72, 0xbe, 
	0x28, 0x9d, 0x5c, 0x3e, 0x6c, 0x10, 0x93, 0x3d, 0xb0, 0x72, 0xa2, 0xbc, 
	0x91, 0x45, 0x71, 0x3e, 0x20, 0xb6, 0x97, 0xbc, 0x9d, 0x46, 0x22, 0xbe, 
	0xde, 0xd6, 0xd1, 0x3d, 0x38, 0xa8, 0xb3, 0xbc, 0xa9, 0x5a, 0x70, 0xbe, 
	0x50, 0xf7, 0xd3, 0xbc, 0xc5, 0xd8, 0x7c, 0x3e, 0xc9, 0xf9, 0x12, 0xbe, 
	0x3c, 0x09, 0x25, 0x3d, 0x42, 0xf1, 0x75, 0x3e, 0xdf, 0x18, 0x02, 0x3e, 
	0x2d, 0x36, 0x11, 0x3e, 0x36, 0x35, 0x3a, 0xbe, 0x26, 0x3a, 0xa3, 0xbd, 
	0x2b, 0x95, 0x71, 0xbd, 0xbb, 0x6d, 0x13, 0xbe, 0x7a, 0xdc, 0xd2, 0x3d, 
	0xe5, 0xe0, 0x82, 0x3e, 0xd4, 0xa8, 0x41, 0xbe, 0x54, 0x3e, 0x8e, 0xbd, 
	0x78, 0xc7, 0xd1, 0x3c, 0x41, 0x1c, 0xb6, 0x3d, 0x0f, 0x82, 0x16, 0x3e, 
	0x38, 0x43, 0x77, 0xbd, 0x20, 0xdc, 0xd8, 0xbd, 0x41, 0x98, 0xf4, 0xbd, 
	0x5b, 0x57, 0x7f, 0xbe, 0x43, 0xfa, 0x13, 0xbe, 0x06, 0x37, 0x46, 0x3e, 
	0xc2, 0x46, 0xba, 0x3d, 0x47, 0x15, 0x89, 0xbd, 0x3f, 0x3f, 0x14, 0xbe, 
	0x08, 0x51, 0xc3, 0xbd, 0x70, 0xf9, 0x2b, 0xbc, 0x53, 0x2e, 0x5c, 0xbe, 
	0x15, 0x0a, 0x3b, 0xbe, 0xa9, 0x8c, 0x76, 0x3e, 0x6c, 0x4e, 0x68, 0x3d, 
	0x21, 0xe7, 0x2e, 0x3e, 0x7a, 0x11, 0x23, 0xbe, 0xa4, 0x09, 0x5d, 0x3e, 
	0xe0, 0x45, 0x56, 0xbd, 0xad, 0x97, 0x03, 0x3e, 0x75, 0x6e, 0x64, 0x3e, 
	0x29, 0xdd, 0x41, 0x3e, 0xe8, 0x21, 0x49, 0x3d, 0xe3, 0x16, 0x21, 0x3d, 
	0x84, 0xeb, 0x24, 0xbd, 0x58, 0xf2, 0x46, 0xbd, 0xe8, 0xd5, 0xa7, 0x3c, 
	0x48, 0x73, 0x43, 0xbe, 0x1b, 0xa5, 0x1c, 0x3e, 0x01, 0x80, 0x0c, 0x3e, 
	0xa0, 0xec, 0x12, 0xbc, 0x96, 0x70, 0x3c, 0xbe, 0x6e, 0xe4, 0x14, 0xbe, 
	0xc0, 0x1f, 0xc0, 0x3c, 0x2f, 0x8a, 0xe4, 0x3d, 0xd8, 0xfa, 0xf7, 0xbd, 
	0xb0, 0x85, 0x4d, 0xbd, 0x1c, 0xb7, 0x69, 0xbd, 0xb6, 0x8c, 0x36, 0xbe, 
	0xc0, 0xc9, 0xa2, 0xbd, 0x65, 0xa6, 0x11, 0x3e, 0x23, 0xe9, 0x00, 0xbd, 
	0x15, 0x6d, 0x3e, 0x3e, 0x92, 0xdb, 0xf4, 0xbd, 0xfe, 0xd5, 0x1f, 0x3e, 
	0x4c, 0xbf, 0x2f, 0x3d, 0x78, 0x26, 0xcc, 0xbd, 0xd6, 0x64, 0xb1, 0xbd, 
	0x42, 0x9f, 0xa2, 0xbd, 0x1f, 0x7e, 0x4b, 0x3e, 0x80, 0x5f, 0x9c, 0xbb, 
	0x98, 0xa8, 0xf9, 0x3c, 0xe2, 0xd3, 0x3e, 0xbe, 0x2d, 0x23, 0x5c, 0xbe, 
	0x98, 0xd2, 0x83, 0x3c, 0x84, 0xaf, 0xb1, 0xbd, 0x6c, 0xd9, 0x62, 0x3d, 
	0x86, 0x0d, 0xb8, 0xbd, 0xec, 0xe6, 0x3b, 0x3e, 0x16, 0xb1, 0x49, 0xbe, 
	0x81, 0x24, 0x6d, 0x3e, 0x53, 0x11, 0x6d, 0x3e, 0x15, 0x97, 0x8f, 0xbd, 
	0xda, 0x2a, 0xb5, 0xbd, 0x8f, 0x0b, 0x13, 0x3e, 0xb8, 0x52, 0x30, 0xbe, 
	0x00, 0x6f, 0xc1, 0xba, 0x48, 0x3f, 0x2f, 0xbc, 0xff, 0xe4, 0x71, 0xbe, 
	0xbf, 0xf1, 0x25, 0x3e, 0xaf, 0x31, 0x7a, 0x3e, 0x0f, 0x52, 0x2f, 0x3e, 
	0xed, 0x8d, 0x2c, 0x3e, 0xf8, 0x80, 0xea, 0x3c, 0x4b, 0x54, 0x06, 0xbe, 
	0x0a, 0xe4, 0x09, 0xbe, 0x30, 0x94, 0x62, 0x3c, 0xb2, 0xc3, 0x25, 0xbe, 
	0x77, 0x18, 0x3a, 0x3e, 0x88, 0xd3, 0xec, 0xbd, 0x35, 0x8a, 0x1e, 0xbe, 
	0x22, 0x44, 0xe7, 0xbd, 0xc8, 0xaf, 0xe3, 0xbd, 0x32, 0xde, 0xac, 0xbd, 
	0xb7, 0x8f, 0x60, 0xbe, 0xd0, 0x70, 0x16, 0xbc, 0x1a, 0xab, 0x01, 0xbe, 
	0x48, 0x59, 0x9e, 0xbd, 0x9e, 0xb3, 0xd9, 0xbd, 0xe1, 0xaf, 0x37, 0x3e, 
	0x60, 0x00, 0xeb, 0x3b, 0x6c, 0x4f, 0x2f, 0xbd, 0x8b, 0x96, 0x72, 0x3e, 
	0xd4, 0x5f, 0x74, 0xbe, 0x62, 0x1b, 0x47, 0xbe, 0xee, 0x07, 0xf0, 0x3d, 
	0xf0, 0xec, 0x2c, 0xbe, 0x08, 0xa1, 0x09, 0xbe, 0x4a, 0x0a, 0x63, 0xbe, 
	0x7e, 0xf8, 0x53, 0xbe, 0x91, 0x0f, 0x5a, 0x3e, 0x00, 0xf5, 0x56, 0xba, 
	0x6e, 0x08, 0xa6, 0x3d, 0xc9, 0x10, 0x0f, 0x3e, 0x2a, 0x66, 0xb5, 0xbd, 
	0x42, 0xc0, 0xe3, 0x3d, 0xe5, 0x1d, 0x68, 0x3e, 0x34, 0xcd, 0x1a, 0x3d, 
	0x72, 0x9c, 0x28, 0xbe, 0x9e, 0x49, 0xa8, 0x3d, 0x1f, 0x64, 0x11, 0x3e, 
	0xc0, 0xfb, 0x27, 0xbc, 0xfc, 0xd8, 0x46, 0xbd, 0x4a, 0x13, 0x42, 0xbe, 
	0x30, 0xd1, 0xee, 0xbc, 0x76, 0x8d, 0xe4, 0xbd, 0xa4, 0x50, 0x31, 0xbe, 
	0x93, 0x54, 0x38, 0x3e, 0x5c, 0x22, 0x6d, 0xbe, 0x5b, 0xac, 0x15, 0x3e, 
	0xfe, 0x2e, 0xfa, 0x3d, 0x5b, 0x7f, 0x12, 0x3e, 0x73, 0xf7, 0xc4, 0x3a, 
	0x04, 0x67, 0x33, 0xbe, 0x78, 0x8c, 0xb1, 0x3d, 0xf8, 0xb8, 0xbc, 0xbd, 
	0xa0, 0xcf, 0x95, 0x3b, 0x61, 0x70, 0x4b, 0x3e, 0x4b, 0xb5, 0x26, 0xbd, 
	0x48, 0xa3, 0xd3, 0xbd, 0x37, 0x59, 0x2c, 0x3e, 0x3c, 0x84, 0xa9, 0xbd, 
	0x00, 0x31, 0xa8, 0xbc, 0x95, 0x1d, 0x33, 0x3d, 0x16, 0x0c, 0xe9, 0x3d, 
	0x73, 0xcb, 0x15, 0x3e, 0xc2, 0x4f, 0x12, 0x3e, 0xde, 0x42, 0xc5, 0x3d, 
	0x47, 0x3b, 0x78, 0x3e, 0xa4, 0x5d, 0x60, 0x3d, 0x93, 0x68, 0x24, 0x3e, 
	0xc0, 0x01, 0x07, 0xbd, 0x78, 0x0a, 0xa8, 0xbd, 0x8e, 0x5d, 0x19, 0xbd, 
	0x29, 0x51, 0x73, 0xbc, 0xbe, 0x25, 0x22, 0xbe, 0x3c, 0x3a, 0x56, 0xbd, 
	0xf3, 0xb0, 0x44, 0x3e, 0x9e, 0xd4, 0xee, 0xbd, 0x28, 0x34, 0x3a, 0xbe, 
	0xb8, 0x02, 0x2c, 0xbd, 0x56, 0x17, 0x98, 0x3d, 0x5d, 0xb9, 0x74, 0xbe, 
	0xdc, 0x78, 0x30, 0x3d, 0x7a, 0xd0, 0x85, 0x3d, 0xd7, 0x39, 0x26, 0x3e, 
	0xee, 0x07, 0xe6, 0x3d, 0x65, 0x17, 0x75, 0x3d, 0x8a, 0x7a, 0x61, 0xbd, 
	0x69, 0xfa, 0x11, 0xbe, 0x6c, 0x90, 0x42, 0x3d, 0xf8, 0xeb, 0xc3, 0x3c, 
	0x8e, 0xb5, 0x2a, 0x3e, 0xad, 0x0f, 0x04, 0x3e, 0xb5, 0xdb, 0x36, 0xbe, 
	0x30, 0x57, 0x68, 0xbd, 0xc2, 0xe2, 0xec, 0x3d, 0x69, 0x35, 0xe6, 0x3d, 
	0x14, 0xef, 0x11, 0xbe, 0x36, 0x01, 0x64, 0xbe, 0x54, 0x4e, 0x26, 0x3d, 
	0x78, 0x21, 0xdc, 0x3c, 0x90, 0xe1, 0xf8, 0xbc, 0x34, 0x58, 0x2a, 0x3d, 
	0x51, 0x1a, 0x04, 0x3e, 0xdc, 0xbe, 0x64, 0x3d, 0xdc, 0x93, 0x95, 0xbd, 
	0xd0, 0xdd, 0x6f, 0x3c, 0x14, 0xd2, 0x10, 0x3d, 0x6f, 0xb5, 0x27, 0x3e, 
	0xc0, 0x20, 0x47, 0xbb, 0xa5, 0xa1, 0x6d, 0xbe, 0x37, 0x5e, 0x20, 0x3e, 
	0x4f, 0x57, 0x00, 0x3e, 0x38, 0x2f, 0xd6, 0xbc, 0xc0, 0xc7, 0xa0, 0xbc, 
	0xba, 0xdb, 0xb1, 0xbd, 0x17, 0xda, 0x73, 0x3e, 0x23, 0x4a, 0x61, 0x3e, 
	0x54, 0xa5, 0xf9, 0xbd, 0x09, 0x86, 0x1a, 0x3e, 0x7c, 0xdf, 0x86, 0xbd, 
	0xee, 0x83, 0x82, 0xbd, 0xe7, 0xc5, 0x25, 0x3e, 0x1f, 0x6f, 0x01, 0x3e, 
	0x3e, 0x0f, 0xab, 0x3d, 0xfc, 0xb0, 0x5c, 0x3d, 0xd2, 0x5b, 0x5a, 0xbe, 
	0x8d, 0x2f, 0x42, 0xbe, 0xa1, 0xf0, 0xfd, 0xbd, 0xb0, 0xd6, 0xff, 0xbc, 
	0xee, 0x37, 0xec, 0xbd, 0x34, 0x2e, 0xe3, 0xbd, 0x46, 0x31, 0xbc, 0x3d, 
	0xcc, 0xbd, 0x07, 0x3d, 0x48, 0x89, 0x8f, 0xbc, 0x9a, 0xaf, 0xca, 0x3d, 
	0xba, 0xd8, 0xbe, 0x3d, 0xce, 0x8c, 0xeb, 0xbd, 0x6b, 0x63, 0x71, 0x3e, 
	0xc8, 0x06, 0x91, 0x3c, 0xed, 0x01, 0x26, 0x3e, 0x4e, 0x9e, 0xcd, 0x3d, 
	0x80, 0x0e, 0x7f, 0x3b, 0xd8, 0x8a, 0x42, 0xbd, 0x7a, 0xfe, 0xb2, 0x3d, 
	0xf0, 0x68, 0xcd, 0xbd, 0x26, 0xdf, 0xfe, 0xbd, 0x34, 0x49, 0x69, 0x3d, 
	0x22, 0x4f, 0x05, 0xbe, 0xa2, 0x97, 0xb0, 0x3d, 0x76, 0x6e, 0x51, 0x3e, 
	0x5b, 0x9c, 0x18, 0xbd, 0x47, 0xa9, 0x5c, 0xbc, 0x5c, 0x76, 0x0b, 0x3d, 
	0x80, 0x23, 0xc3, 0xbc, 0xef, 0x48, 0x2d, 0x3e, 0x8e, 0x00, 0xcb, 0xbd, 
	0x14, 0xbc, 0x41, 0xbe, 0xaa, 0x87, 0x45, 0xbe, 0x87, 0xe0, 0x64, 0x3e, 
	0x6f, 0x7f, 0xfd, 0xbd, 0x89, 0x96, 0x1f, 0x3e, 0x93, 0x0f, 0x6b, 0x3e, 
	0xf2, 0xa4, 0xc4, 0xbd, 0x00, 0x04, 0xdd, 0xbd, 0xf2, 0x53, 0xd8, 0xbd, 
	0x8b, 0x6e, 0x7a, 0x3e, 0x80, 0x43, 0x9e, 0xbb, 0x0f, 0xd9, 0x44, 0x3e, 
	0xbc, 0x5d, 0x73, 0x3d, 0x2e, 0xf3, 0x32, 0xbe, 0xd3, 0x4a, 0xd0, 0x3d, 
	0xc9, 0xfc, 0x0a, 0xbe, 0xff, 0x62, 0xf9, 0xbd, 0x48, 0x19, 0xf9, 0xbd, 
	0x46, 0xb1, 0x02, 0xbe, 0x12, 0x4b, 0x85, 0x3d, 0xaa, 0x23, 0x0c, 0x3d, 
	0x00, 0x9d, 0x3e, 0xbc, 0x1d, 0x11, 0x1a, 0x3e, 0x59, 0xf8, 0x5c, 0xbe, 
	0xd0, 0x75, 0xaa, 0x3c, 0x29, 0xa7, 0x7c, 0xbe, 0x5e, 0x9f, 0xe0, 0x3d, 
	0x31, 0x08, 0xcd, 0xbd, 0x16, 0x2d, 0x9d, 0x3d, 0xd8, 0x42, 0x49, 0x3e, 
	0xcc, 0x2d, 0x21, 0x3e, 0xb1, 0xcd, 0x18, 0x3e, 0xa7, 0x9c, 0x23, 0x3e, 
	0xdf, 0x13, 0x40, 0x3e, 0x06, 0x89, 0x4e, 0xbd, 0x00, 0xe4, 0x25, 0xbc, 
	0x94, 0x09, 0x54, 0xbe, 0x0c, 0x96, 0xb4, 0xbd, 0x34, 0xb8, 0xe3, 0xbd, 
	0xa5, 0x4f, 0x5e, 0x3e, 0x5e, 0xca, 0x03, 0xbe, 0x86, 0x73, 0x42, 0xbe, 
	0xdb, 0x62, 0x16, 0x3e, 0xac, 0x6b, 0xd5, 0x3d, 0x11, 0xe7, 0x5f, 0x3b, 
	0x11, 0x66, 0x59, 0xbe, 0xf4, 0x36, 0x18, 0xbe, 0x96, 0x41, 0x21, 0xbe, 
	0x15, 0xe3, 0x6b, 0x3e, 0xfb, 0x79, 0x41, 0x3e, 0x67, 0x8c, 0xae, 0x3d, 
	0x52, 0x6b, 0xd5, 0x3d, 0xf2, 0xba, 0xf9, 0x3d, 0x57, 0x08, 0x1f, 0xbe, 
	0x7e, 0x95, 0x9a, 0xbd, 0xca, 0x66, 0xd9, 0x3d, 0x42, 0xd8, 0x12, 0x3e, 
	0xa7, 0xaa, 0x70, 0xbe, 0xe1, 0x40, 0x87, 0xbc, 0x94, 0xfc, 0x23, 0x3d, 
	0x6f, 0x9d, 0x01, 0x3e, 0xc0, 0x75, 0x00, 0x3b, 0x7f, 0xb5, 0x51, 0x3e, 
	0x8c, 0x3d, 0x14, 0xbc, 0xa8, 0x86, 0xf5, 0xbd, 0x18, 0x51, 0x4f, 0x3e, 
	0xd5, 0x91, 0x24, 0x3e, 0xe5, 0x5e, 0x0f, 0x3e, 0xf1, 0xc0, 0x2d, 0xbe, 
	0xe1, 0xb7, 0x5c, 0x3e, 0xcc, 0x98, 0x28, 0x3e, 0xf7, 0x68, 0x65, 0x3e, 
	0xdb, 0xd9, 0x0d, 0x3e, 0xa2, 0x58, 0x91, 0x3d, 0xf5, 0xc3, 0xe1, 0xbd, 
	0xfd, 0x45, 0x85, 0xbd, 0x66, 0xec, 0x23, 0xbe, 0x3b, 0x2e, 0x23, 0x3e, 
	0xc6, 0x6e, 0xac, 0x3d, 0x04, 0x3d, 0x21, 0xbe, 0xe7, 0xe9, 0x5e, 0x3d, 
	0xf2, 0xad, 0x86, 0xbd, 0x28, 0x6a, 0x82, 0x3c, 0x81, 0xba, 0x66, 0xbe, 
	0x9e, 0xdd, 0xf5, 0xbd, 0xbe, 0x3f, 0xba, 0xbd, 0x60, 0xda, 0xbb, 0x3b, 
	0x62, 0x58, 0x8c, 0x3d, 0x87, 0xc7, 0x3d, 0x3e, 0x16, 0x36, 0xde, 0x3d, 
	0xa6, 0x71, 0x91, 0x3d, 0x72, 0x40, 0x2b, 0xbe, 0x26, 0x4e, 0x11, 0xbe, 
	0x0a, 0xeb, 0xcf, 0x3d, 0x15, 0xde, 0x5f, 0x3e, 0x8f, 0x81, 0x70, 0x3e, 
	0xd0, 0x2e, 0x2a, 0xbd, 0xc5, 0x4d, 0x77, 0xbe, 0x01, 0x05, 0x78, 0x3e, 
	0x85, 0xa5, 0x74, 0x3e, 0x46, 0x01, 0x5e, 0xbe, 0x3c, 0xe3, 0x1e, 0x3d, 
	0x34, 0xd8, 0x08, 0xbe, 0xd0, 0xa3, 0x31, 0x3c, 0x09, 0x49, 0x5b, 0x3e, 
	0x58, 0x86, 0x8b, 0x3c, 0x6c, 0x3f, 0x4a, 0x3d, 0x7c, 0xfa, 0x1d, 0xbd, 
	0x54, 0xf8, 0x20, 0x3d, 0x5f, 0x83, 0x3b, 0x3e, 0x3c, 0x12, 0x45, 0xbd, 
	0x0d, 0x66, 0x50, 0x3e, 0x40, 0x07, 0x47, 0xbb, 0x14, 0xda, 0x0c, 0xbe, 
	0x0d, 0xde, 0x21, 0x3e, 0x94, 0x1e, 0x5c, 0xbd, 0x0c, 0xcf, 0xaf, 0xbd, 
	0x93, 0x0e, 0x00, 0x3e, 0x77, 0xc2, 0x3d, 0x3e, 0x84, 0x88, 0x81, 0xbd, 
	0xb2, 0x4d, 0x27, 0xbe, 0x48, 0xb0, 0x89, 0xbc, 0x21, 0x73, 0x43, 0x3e, 
	0x99, 0xe5, 0x22, 0x3e, 0xd1, 0xf9, 0x34, 0x3e, 0xe1, 0xf8, 0x04, 0xbe, 
	0x60, 0x4a, 0x9e, 0xbb, 0xbc, 0x66, 0xdb, 0xbd, 0x35, 0xcd, 0x07, 0x3e, 
	0x92, 0x0c, 0x9a, 0x3d, 0x1f, 0x52, 0x5e, 0xbe, 0xb4, 0x97, 0x0c, 0x3d, 
	0xc1, 0xd9, 0x54, 0xbe, 0xb3, 0x84, 0x4e, 0xbe, 0xca, 0x02, 0xf1, 0x3d, 
	0x28, 0x2e, 0xe6, 0xbc, 0x00, 0x37, 0x81, 0xbc, 0xf2, 0xb9, 0x85, 0xbd, 
	0xde, 0xe0, 0x29, 0xbe, 0x86, 0xed, 0x99, 0xbd, 0x84, 0x0b, 0x95, 0xbd, 
	0xb2, 0x6c, 0xfd, 0xbd, 0xe8, 0x82, 0xff, 0x3c, 0x77, 0xb3, 0x27, 0xbe, 
	0x5d, 0x71, 0x62, 0x3e, 0xe9, 0x67, 0xc9, 0xbd, 0x14, 0xd4, 0xf9, 0xbc, 
	0xca, 0x45, 0xa5, 0xbd, 0xd0, 0xa5, 0x43, 0xbd, 0xd6, 0x77, 0x54, 0xbe, 
	0x6a, 0xd6, 0x77, 0x3c, 0x0e, 0xed, 0xe6, 0x3d, 0x39, 0x23, 0x55, 0x3e, 
	0x46, 0x24, 0xe2, 0x3d, 0xb4, 0x4c, 0x25, 0x3d, 0x22, 0x0a, 0xa8, 0xbd, 
	0x98, 0xfa, 0xef, 0x3d, 0x04, 0x1b, 0x35, 0x3d, 0x08, 0x93, 0xd1, 0xbd, 
	0x2b, 0x00, 0x4f, 0xbe, 0x10, 0x52, 0xd4, 0xbc, 0x6f, 0x07, 0x2b, 0xbe, 
	0x38, 0x50, 0x93, 0xbd, 0x3e, 0xbb, 0x8e, 0x3d, 0xd7, 0x3b, 0x1b, 0x3e, 
	0x9d, 0xe9, 0x52, 0x3e, 0x6f, 0xe1, 0x43, 0x3e, 0x78, 0xd0, 0xd8, 0xbc, 
	0x5b, 0x3f, 0x1c, 0xbe, 0x78, 0xd7, 0x51, 0xbe, 0xa9, 0x2d, 0x9c, 0x3c, 
	0x0c, 0xe1, 0x0c, 0x3d, 0xb2, 0xae, 0xf7, 0xbd, 0x32, 0xc0, 0xcc, 0x3d, 
	0x9c, 0x6a, 0x83, 0xbb, 0x2e, 0xdd, 0x39, 0xbe, 0xbc, 0xc4, 0x6f, 0xbe, 
	0x91, 0x7f, 0xec, 0xbd, 0x78, 0xca, 0x80, 0x3c, 0xcd, 0xb9, 0x4a, 0x3e, 
	0x2b, 0x77, 0x82, 0xbd, 0xc9, 0xde, 0x28, 0x3e, 0xc6, 0x98, 0xb5, 0xbd, 
	0xf0, 0xa4, 0x39, 0x3c, 0x6f, 0x76, 0x45, 0xbc, 0xf6, 0x28, 0x82, 0xbd, 
	0xc9, 0xd6, 0x20, 0x3e, 0xcc, 0xd1, 0x05, 0xbe, 0xb6, 0xcc, 0xef, 0x3d, 
	0x54, 0x37, 0x92, 0xbc, 0xca, 0x34, 0x07, 0xbe, 0x32, 0x24, 0xbd, 0xbd, 
	0xee, 0xc1, 0xc6, 0xbd, 0x37, 0x11, 0x59, 0xbe, 0x2e, 0x82, 0xa6, 0x3d, 
	0x24, 0xbb, 0x63, 0x3d, 0x28, 0xfb, 0xda, 0x3c, 0x0a, 0xea, 0x31, 0xbe, 
	0x14, 0xb3, 0x6f, 0xbd, 0x72, 0xaa, 0xa9, 0x3d, 0xc5, 0x7b, 0x16, 0x3e, 
	0x1b, 0xcb, 0x32, 0x3e, 0xdc, 0x75, 0x6e, 0xbe, 0xe6, 0x68, 0xd8, 0x3d, 
	0x66, 0xc6, 0x83, 0x3d, 0x2b, 0xa0, 0x4f, 0x3e, 0xe8, 0xb9, 0x31, 0xbe, 
	0x91, 0x93, 0x42, 0x3e, 0xd3, 0xde, 0x0b, 0xbe, 0xc8, 0x8a, 0x9b, 0xbc, 
	0x80, 0xf6, 0xd2, 0xbd, 0x90, 0x6f, 0x11, 0xbd, 0xee, 0x9c, 0xa4, 0xbd, 
	0x90, 0x6f, 0x16, 0x3c, 0xe0, 0x89, 0xc3, 0x3b, 0x1e, 0xde, 0x39, 0xbe, 
	0x14, 0x88, 0x4c, 0xbe, 0x5c, 0xbb, 0x00, 0xbe, 0x94, 0x7b, 0x21, 0xbe, 
	0x89, 0xeb, 0x0d, 0xbe, 0xde, 0xa3, 0x4d, 0xbe, 0x8a, 0xe9, 0xcd, 0xbd, 
	0x64, 0x5e, 0x5e, 0x3d, 0x83, 0xae, 0x15, 0x3e, 0x56, 0xf9, 0x89, 0xbd, 
	0x2d, 0x78, 0x2d, 0x3e, 0xf0, 0x77, 0xfa, 0xbc, 0xe0, 0x0b, 0xaa, 0xbb, 
	0xa2, 0x99, 0xde, 0x3d, 0x8e, 0xc0, 0x8f, 0x3d, 0x7f, 0xce, 0x29, 0xbe, 
	0x8d, 0xfe, 0x3b, 0x3e, 0x5c, 0x36, 0x48, 0x3d, 0x4e, 0x16, 0xc0, 0x3d, 
	0xb5, 0xc6, 0x67, 0x3e, 0x84, 0xe1, 0x55, 0x3d, 0xb0, 0x53, 0x3d, 0xbd, 
	0x6f, 0x84, 0x60, 0x3e, 0x3c, 0x35, 0x0d, 0xbe, 0x51, 0xca, 0x4a, 0x3e, 
	0xdd, 0x3d, 0x18, 0x3e, 0x0e, 0xe4, 0x99, 0x3d, 0xb6, 0x72, 0xf6, 0xbd, 
	0x3c, 0x8d, 0xb4, 0x3c, 0x25, 0x12, 0xee, 0xbc, 0x7d, 0x74, 0x6c, 0x3e, 
	0x5d, 0x76, 0xda, 0x3d, 0x07, 0xd8, 0x4e, 0x3e, 0xce, 0xaf, 0xb9, 0x3d, 
	0xc2, 0xbc, 0xab, 0xbd, 0x98, 0x6c, 0x52, 0xbe, 0x69, 0x67, 0x76, 0x3e, 
	0x1f, 0xd9, 0x22, 0x3e, 0xca, 0xa7, 0x6a, 0xbe, 0x78, 0xfc, 0x79, 0xbd, 
	0xff, 0x66, 0xe0, 0xbd, 0xec, 0xd3, 0xd5, 0x3d, 0xd3, 0x22, 0x5b, 0x3e, 
	0x95, 0x46, 0x56, 0xbd, 0x17, 0xa0, 0x49, 0x3e, 0xd5, 0xea, 0x0c, 0x3e, 
	0x41, 0x78, 0x1f, 0x3e, 0xda, 0xc2, 0xe2, 0xbd, 0xf0, 0x90, 0x74, 0xbb, 
	0xff, 0xe4, 0xeb, 0x3d, 0x0d, 0x11, 0x39, 0x3e, 0x2f, 0xf5, 0x72, 0x3d, 
	0xfc, 0xe2, 0x71, 0x3d, 0x83, 0x1b, 0x00, 0x3e, 0x61, 0x56, 0x00, 0x3e, 
	0xb5, 0x63, 0xe9, 0x3d, 0xaf, 0xbf, 0x54, 0x3e, 0x45, 0x12, 0x3c, 0x3e, 
	0x94, 0xa6, 0xf5, 0xbd, 0xb3, 0xa0, 0x43, 0xbe, 0x74, 0x30, 0xc8, 0x3d, 
	0x2b, 0x81, 0x78, 0x3e, 0x64, 0x04, 0x87, 0xbd, 0x7f, 0xe4, 0x02, 0x3e, 
	0x4a, 0x3c, 0xcb, 0x3d, 0xa3, 0xfe, 0x3d, 0x3e, 0x80, 0xb7, 0x8f, 0xba, 
	0xda, 0x18, 0x6c, 0xbe, 0xaa, 0x21, 0xb4, 0xbd, 0xe2, 0x77, 0x4a, 0xbe, 
	0x94, 0xba, 0x61, 0xbd, 0xb1, 0x73, 0x27, 0x3e, 0xef, 0xba, 0x01, 0x3e, 
	0xe1, 0xf8, 0x2d, 0x3e, 0x22, 0xc9, 0x84, 0x3d, 0x0c, 0x2f, 0xd1, 0xbd, 
	0xf7, 0xb9, 0x64, 0x3e, 0x3a, 0x90, 0x70, 0xbe, 0x74, 0xc8, 0x3f, 0xbe, 
	0x32, 0x88, 0x03, 0x3e, 0x62, 0xaa, 0x36, 0xbe, 0x06, 0xeb, 0x86, 0x3d, 
	0x60, 0x89, 0xa4, 0xbb, 0x57, 0x65, 0x10, 0xbe, 0x00, 0x48, 0x70, 0x3a, 
	0xe9, 0xff, 0xb5, 0x3d, 0x21, 0x8d, 0x39, 0x3e, 0x8e, 0x84, 0xf3, 0x3d, 
	0x64, 0x66, 0x5d, 0xbe, 0x01, 0xae, 0x14, 0x3e, 0x48, 0x3a, 0xaa, 0x38, 
	0x92, 0xc1, 0x9b, 0x3c, 0xd8, 0x7b, 0x01, 0xbd, 0xf6, 0x25, 0x74, 0xbe, 
	0x4e, 0x8d, 0xa3, 0x3d, 0x25, 0x62, 0x54, 0xbe, 0xce, 0xd4, 0x73, 0xbe, 
	0xc0, 0x38, 0x66, 0xbd, 0xac, 0xd1, 0x62, 0xbe, 0x38, 0xa1, 0x64, 0x3e, 
	0x4b, 0xaf, 0x1b, 0xbd, 0xce, 0xcb, 0x4e, 0x3e, 0xba, 0xcc, 0x5a, 0xbe, 
	0x4d, 0x48, 0x12, 0x3e, 0xc2, 0xf1, 0x4c, 0xbe, 0x67, 0x77, 0xad, 0xbb, 
	0xc6, 0xa5, 0x28, 0xbe, 0xc2, 0x0b, 0x71, 0xbe, 0x62, 0xb4, 0x53, 0xbe, 
	0x5e, 0x11, 0xa4, 0xbd, 0xa9, 0x0e, 0x2d, 0x3e, 0x20, 0x45, 0x98, 0x3b, 
	0xe7, 0x1c, 0x42, 0x3d, 0x25, 0x85, 0x13, 0xbe, 0x38, 0x9a, 0x4d, 0x3e, 
	0x8d, 0xd6, 0x71, 0xbc, 0xd4, 0xe1, 0x8c, 0xbd, 0xa0, 0x01, 0xe0, 0xbc, 
	0x65, 0x61, 0x76, 0xbe, 0xb0, 0x60, 0x38, 0x3b, 0x18, 0xc5, 0xff, 0xbd, 
	0x40, 0x1a, 0x9f, 0xbc, 0x68, 0x7c, 0xdd, 0xbc, 0xd4, 0xea, 0x8d, 0xbd, 
	0x7e, 0xa6, 0x2c, 0xbc, 0x1f, 0x90, 0x34, 0x3e, 0x98, 0xb5, 0x11, 0xbe, 
	0xb8, 0x0b, 0x16, 0xbe, 0x4b, 0xc2, 0x52, 0xbe, 0xc8, 0x3a, 0x78, 0xbe, 
	0x14, 0x2b, 0x09, 0x3d, 0x5c, 0x92, 0x31, 0x3e, 0x2f, 0xda, 0x5a, 0x3e, 
	0x0a, 0xae, 0xd9, 0x3d, 0x24, 0x5e, 0x69, 0x3d, 0x73, 0x89, 0x2c, 0xbe, 
	0xd7, 0x9e, 0x79, 0x3e, 0x60, 0x89, 0x44, 0xbd, 0x82, 0xdb, 0xe5, 0xbd, 
	0xb8, 0xc2, 0xea, 0xbd, 0x67, 0xec, 0x0c, 0xbd, 0x72, 0xbb, 0xb1, 0x3d, 
	0xb7, 0x32, 0x61, 0x3e, 0x08, 0x3a, 0x0b, 0x3e, 0xc9, 0x64, 0x43, 0xbe, 
	0xbc, 0xa1, 0x20, 0xbd, 0x01, 0x06, 0x56, 0x3e, 0x4b, 0xde, 0x6a, 0xbe, 
	0x80, 0xd6, 0x30, 0x3e, 0x30, 0x7b, 0x68, 0x3e, 0xc2, 0x98, 0x52, 0x3e, 
	0xa4, 0x6f, 0x95, 0xbd, 0xa7, 0xdb, 0x45, 0x3e, 0xfc, 0xe3, 0x5a, 0x3d, 
	0xc5, 0x8e, 0x47, 0x3e, 0xff, 0x37, 0x70, 0xbd, 0x9e, 0x25, 0x9d, 0x3d, 
	0x32, 0xad, 0xda, 0x3d, 0x04, 0xdf, 0xd0, 0xbd, 0x1c, 0x22, 0x64, 0x3e, 
	0xc7, 0xf7, 0x20, 0xbd, 0x10, 0xe5, 0xf3, 0xbd, 0xb2, 0x88, 0x0a, 0x3e, 
	0x80, 0xfc, 0x04, 0xbc, 0x19, 0x42, 0xcd, 0xbd, 0x93, 0xfa, 0x4f, 0xbe, 
	0xdf, 0x2f, 0x55, 0xbe, 0x7e, 0x60, 0x8d, 0x3d, 0x7a, 0xc6, 0xa3, 0x3d, 
	0xea, 0xaf, 0x1c, 0x3d, 0x62, 0x20, 0xc5, 0xbd, 0xf9, 0x2a, 0x48, 0x3e, 
	0xcd, 0x64, 0x14, 0x3e, 0x79, 0x48, 0x5c, 0xbe, 0x33, 0x33, 0x34, 0xbe, 
	0x60, 0xc8, 0xb9, 0x3b, 0xa7, 0x6b, 0x20, 0x3e, 0x76, 0xf3, 0xff, 0xff, 
	0x04, 0x00, 0x00, 0x00, 0x28, 0x0a, 0x00, 0x00, 0xfe, 0x62, 0x18, 0x3e, 
	0xa8, 0x37, 0x00, 0xbd, 0x78, 0x8d, 0x5e, 0xbe, 0x0f, 0x67, 0x8c, 0xbe, 
	0x28, 0xbb, 0x7c, 0x3d, 0xf2, 0xb0, 0x68, 0xbe, 0x00, 0x73, 0xf6, 0xbb, 
	0x33, 0x1c, 0x90, 0x3e, 0x54, 0xc8, 0x93, 0xbd, 0x06, 0xf3, 0x22, 0x3e, 
	0x58, 0xcf, 0x5f, 0xbe, 0x56, 0xed, 0x29, 0xbe, 0x20, 0x4f, 0xa2, 0xbc, 
	0xaf, 0xf0, 0x0a, 0x3e, 0xf1, 0x0c, 0x82, 0xbc, 0x9c, 0x64, 0x80, 0xbe, 
	0xd2, 0x60, 0x8c, 0xbe, 0xac, 0x56, 0x07, 0x3e, 0x38, 0x77, 0x57, 0x3e, 
	0x76, 0x12, 0xaf, 0x3d, 0x31, 0xbe, 0xee, 0x3d, 0x83, 0x0a, 0xb2, 0x3e, 
	0xf3, 0xfb, 0x9a, 0x3d, 0x3b, 0xb2, 0x59, 0x3d, 0x8e, 0x5e, 0xc0, 0x3e, 
	0x5f, 0x28, 0xdf, 0x3c, 0x9f, 0xfd, 0xc9, 0xbd, 0xd1, 0xcc, 0x67, 0xbe, 
	0x77, 0x65, 0x18, 0x3e, 0xe1, 0xbe, 0x84, 0x3e, 0xfb, 0x5b, 0x47, 0x3e, 
	0xfc, 0xdc, 0x08, 0x3e, 0xf4, 0x9d, 0x80, 0x3d, 0xc5, 0xf4, 0xf2, 0x3c, 
	0xa1, 0xd9, 0x69, 0xbe, 0xcc, 0xeb, 0x57, 0x3e, 0xe3, 0xb8, 0xc0, 0x3d, 
	0xa0, 0x1a, 0x6f, 0xbd, 0x16, 0x18, 0x5f, 0x3e, 0x0b, 0x79, 0xe8, 0xbc, 
	0x5b, 0x98, 0x9e, 0xbd, 0xe6, 0xbf, 0x7d, 0x3e, 0xf0, 0xaa, 0x58, 0x3e, 
	0x74, 0x1b, 0x4f, 0x3e, 0x50, 0x82, 0x96, 0xbe, 0x7f, 0x17, 0x6f, 0xbe, 
	0x08, 0xec, 0xcb, 0x3c, 0x7b, 0x87, 0x3c, 0x3d, 0x23, 0x19, 0x3c, 0x3e, 
	0x70, 0xe2, 0x5e, 0xbe, 0x55, 0x23, 0x94, 0xbe, 0xd6, 0x7d, 0x8d, 0xbd, 
	0x6d, 0x87, 0xcb, 0x3a, 0x55, 0xbf, 0xa5, 0xbd, 0x34, 0xda, 0xfa, 0x3d, 
	0x38, 0xd2, 0x1e, 0x3e, 0xed, 0x5d, 0x13, 0x3e, 0x67, 0xa0, 0x6a, 0x3e, 
	0xf0, 0xae, 0x90, 0xbe, 0x39, 0xb5, 0x3a, 0x3e, 0x30, 0x50, 0x9b, 0xbd, 
	0xe4, 0x56, 0x99, 0xbd, 0x3a, 0x09, 0xb8, 0xbe, 0x64, 0xeb, 0x95, 0xbd, 
	0xc3, 0x77, 0xb8, 0x3d, 0xe6, 0xdc, 0x7e, 0xbe, 0x97, 0xde, 0x99, 0x3e, 
	0xca, 0x1d, 0x48, 0x3e, 0x9c, 0x35, 0xea, 0x3d, 0xd8, 0x42, 0x86, 0xbd, 
	0x48, 0x26, 0x1c, 0xbd, 0x20, 0x6c, 0x17, 0xbc, 0x74, 0x19, 0x02, 0xbe, 
	0x80, 0x0d, 0xb0, 0xbd, 0xda, 0x81, 0x89, 0xbe, 0x42, 0x64, 0xd8, 0xbd, 
	0x0a, 0xf2, 0x66, 0x3e, 0x47, 0x1f, 0x0b, 0xbe, 0xa0, 0xd0, 0x34, 0x3d, 
	0xca, 0x94, 0xf4, 0xbd, 0x60, 0x85, 0x78, 0xbc, 0x1b, 0xd9, 0x97, 0x3e, 
	0xf8, 0x9b, 0xd4, 0x3d, 0x98, 0xae, 0xee, 0x3d, 0x71, 0xc2, 0x84, 0x3e, 
	0xee, 0x1f, 0x2c, 0x3e, 0x15, 0x9a, 0x82, 0x3e, 0x2e, 0x56, 0x6c, 0x3e, 
	0x7a, 0x22, 0x1d, 0x3e, 0x2c, 0x20, 0xb0, 0xbd, 0x26, 0x65, 0x13, 0xbe, 
	0x74, 0x3e, 0xd4, 0xbd, 0x49, 0x32, 0x39, 0xbe, 0xe5, 0xca, 0x82, 0xbe, 
	0x5e, 0xe1, 0x67, 0xbe, 0x40, 0x9b, 0x85, 0xbe, 0x07, 0x01, 0x13, 0xbe, 
	0x7c, 0x8d, 0xeb, 0x3d, 0xe8, 0x1c, 0x22, 0x3d, 0xe0, 0x8e, 0x08, 0x3e, 
	0x6e, 0x7a, 0x72, 0xbe, 0x4c, 0x8f, 0x8f, 0xbe, 0x48, 0x30, 0x3c, 0x3d, 
	0x60, 0x78, 0x31, 0xbd, 0xf5, 0x83, 0x38, 0x3d, 0xa4, 0xcf, 0x9a, 0xbe, 
	0x73, 0xcd, 0x92, 0x3e, 0x3c, 0x33, 0x53, 0xbe, 0xc9, 0x4c, 0x8b, 0x3e, 
	0x81, 0x6b, 0x93, 0xbd, 0xce, 0x55, 0xb1, 0xbd, 0xc2, 0xf0, 0x9c, 0x3d, 
	0xda, 0xe7, 0x8f, 0x3c, 0x63, 0x19, 0x88, 0x3c, 0x0d, 0xfb, 0x15, 0xbe, 
	0xd3, 0xd0, 0x39, 0xbe, 0x41, 0x17, 0xc0, 0x3d, 0x5e, 0x73, 0x0f, 0x3e, 
	0x72, 0xa5, 0x7e, 0xbe, 0x40, 0xa5, 0x1d, 0x3e, 0xfc, 0x43, 0x88, 0x3d, 
	0xb0, 0x00, 0xdd, 0xbc, 0xf8, 0x0f, 0x9b, 0x3d, 0x3c, 0xe5, 0x19, 0xbe, 
	0x7a, 0x7b, 0x65, 0x3e, 0x29, 0xbb, 0x86, 0xbe, 0xf4, 0x55, 0x45, 0xbe, 
	0xe0, 0x4c, 0xf5, 0x3d, 0x40, 0x73, 0xbe, 0x3c, 0xfa, 0x13, 0x5a, 0xbe, 
	0xdc, 0x81, 0x09, 0x3e, 0xb0, 0x65, 0x4f, 0xbd, 0xff, 0xb5, 0x63, 0xbe, 
	0xfd, 0x0a, 0x63, 0xbe, 0x80, 0x0e, 0x27, 0xbd, 0x40, 0x1a, 0xd2, 0x3d, 
	0xed, 0x28, 0x86, 0x3e, 0x18, 0xc1, 0x8a, 0x3d, 0x46, 0xb5, 0x78, 0x3e, 
	0xca, 0x6c, 0xc2, 0xbd, 0x18, 0x63, 0xbc, 0x3d, 0xfc, 0x63, 0xa9, 0x3d, 
	0xda, 0x4d, 0x5b, 0xbe, 0x80, 0xde, 0x6a, 0xbb, 0xa0, 0xce, 0x93, 0xbe, 
	0x5d, 0x88, 0x00, 0xbe, 0xce, 0xf7, 0x14, 0xbe, 0x66, 0xb1, 0x0f, 0xbe, 
	0x54, 0x96, 0x78, 0xbe, 0x65, 0xc4, 0x9c, 0xbe, 0x1e, 0x36, 0x07, 0x3e, 
	0x53, 0xc9, 0x92, 0x3e, 0x0d, 0x32, 0x7a, 0xbe, 0x98, 0xc6, 0x10, 0x3d, 
	0xb4, 0xda, 0x24, 0x3e, 0x66, 0x44, 0x30, 0xbe, 0x10, 0xaf, 0xe1, 0xbc, 
	0x51, 0x7a, 0x31, 0xbe, 0x30, 0x03, 0xbf, 0x3c, 0x8e, 0xd2, 0xe2, 0xbd, 
	0x17, 0x5c, 0x16, 0xbe, 0x88, 0x80, 0x87, 0xbe, 0xb3, 0xfb, 0x8d, 0x3e, 
	0x13, 0xe3, 0x46, 0xbe, 0x9e, 0x06, 0x76, 0x3e, 0x16, 0x67, 0xc1, 0xbd, 
	0x2e, 0x79, 0x72, 0x3e, 0x8a, 0xd0, 0x2d, 0x3e, 0x54, 0x28, 0x5a, 0xbe, 
	0x57, 0xeb, 0x91, 0xbe, 0xd2, 0xc9, 0x98, 0xbe, 0x1d, 0x95, 0x04, 0xbe, 
	0x0a, 0x5f, 0x9c, 0x3d, 0x2c, 0xe2, 0x8f, 0xbe, 0x1f, 0x62, 0x48, 0xbe, 
	0xdd, 0x85, 0xc7, 0x3d, 0x62, 0x4d, 0x95, 0xbd, 0x32, 0x87, 0x42, 0xbe, 
	0xf0, 0xc5, 0x46, 0x3d, 0x0e, 0x7b, 0xa8, 0xbd, 0x4e, 0x93, 0xb9, 0x3e, 
	0x0b, 0x0b, 0x60, 0x3e, 0x24, 0x96, 0xd8, 0x3d, 0x57, 0x83, 0xd6, 0xbd, 
	0x39, 0xea, 0x14, 0xbe, 0xd9, 0x2c, 0x12, 0xbe, 0xa8, 0x77, 0x6a, 0xbe, 
	0x90, 0x69, 0x13, 0xbe, 0xff, 0xec, 0x00, 0xbd, 0x4c, 0xc8, 0x5e, 0x3e, 
	0xec, 0xd8, 0x5c, 0xbd, 0x25, 0x95, 0x9d, 0x3e, 0xba, 0xd1, 0xf1, 0x3c, 
	0x2e, 0xec, 0x1d, 0xbe, 0x4a, 0xbf, 0x44, 0x3e, 0x7b, 0xcf, 0x8b, 0x3e, 
	0x96, 0xc3, 0x35, 0xbe, 0x88, 0x5a, 0x5d, 0x3d, 0xa0, 0x01, 0x96, 0xbc, 
	0x5f, 0xb5, 0x80, 0xbe, 0xf3, 0xc9, 0x37, 0xbe, 0x00, 0xd6, 0x11, 0x3b, 
	0x22, 0xdd, 0xcf, 0xbd, 0x50, 0xab, 0xe2, 0xbc, 0x20, 0x9d, 0x6d, 0x3c, 
	0x95, 0xd2, 0x91, 0x3e, 0x36, 0xc4, 0x58, 0x3e, 0x9e, 0x36, 0xc6, 0xbd, 
	0x74, 0xa3, 0xf1, 0x3d, 0x04, 0xc7, 0xcc, 0x3c, 0x33, 0x69, 0x06, 0x3e, 
	0xfb, 0x87, 0xf4, 0xbd, 0x70, 0xc3, 0x37, 0xbe, 0xe1, 0x42, 0x18, 0xbe, 
	0x9c, 0x7e, 0x80, 0x3e, 0xc2, 0x45, 0xf5, 0xbd, 0xfc, 0x76, 0x13, 0x3d, 
	0x86, 0x74, 0x49, 0x3c, 0x87, 0x21, 0xc3, 0x3e, 0x89, 0x1a, 0x32, 0x3c, 
	0xf6, 0x7c, 0x58, 0x3e, 0x5a, 0xcb, 0x76, 0x3e, 0x08, 0x79, 0x34, 0x3e, 
	0xb3, 0xd4, 0x8d, 0x3e, 0xfc, 0xaf, 0x07, 0x3e, 0xa6, 0xf8, 0x08, 0xbe, 
	0xcd, 0x19, 0x84, 0x3e, 0x38, 0x92, 0x2c, 0xbd, 0xf0, 0x23, 0xbd, 0x3c, 
	0x62, 0x47, 0xb9, 0xbd, 0xc6, 0xa9, 0x7e, 0x3e, 0xd2, 0xdb, 0x4f, 0xbe, 
	0x70, 0xb4, 0x19, 0xbe, 0x60, 0x97, 0x83, 0xbe, 0xc0, 0x58, 0x5d, 0x3d, 
	0x64, 0x6e, 0xc4, 0x3d, 0x00, 0x52, 0x38, 0x3c, 0xe7, 0x08, 0x85, 0x3e, 
	0x1a, 0x66, 0x96, 0xbe, 0xe6, 0xf4, 0x7e, 0x3e, 0x28, 0x93, 0x79, 0x3d, 
	0xe8, 0x38, 0xd7, 0x3d, 0xfd, 0xfd, 0x23, 0xbe, 0x08, 0x49, 0x44, 0x3d, 
	0x00, 0x55, 0xf4, 0xbc, 0x60, 0x9c, 0x09, 0x3c, 0xce, 0x0f, 0x50, 0xbe, 
	0xdc, 0x69, 0xa8, 0xbd, 0xa6, 0x62, 0x3a, 0xbe, 0xba, 0x2c, 0x56, 0x3e, 
	0x2f, 0xf2, 0x81, 0xbe, 0xac, 0xf9, 0xf0, 0x3d, 0xec, 0x04, 0x6b, 0xbe, 
	0xb2, 0x6f, 0x17, 0xbe, 0x40, 0xd8, 0xb1, 0xbb, 0xe8, 0x30, 0xd1, 0x3d, 
	0xea, 0x75, 0x66, 0x3e, 0x8f, 0x3b, 0x8e, 0x3e, 0xa4, 0xab, 0x4d, 0xbe, 
	0x70, 0x1a, 0x77, 0xbe, 0x1c, 0x47, 0xb6, 0x3d, 0xba, 0x69, 0x35, 0x3e, 
	0x8f, 0x52, 0x47, 0xbe, 0xef, 0x2f, 0x9b, 0x3e, 0x6f, 0x9f, 0x5f, 0xbe, 
	0x72, 0x64, 0x3f, 0x3e, 0xb0, 0xd7, 0xf6, 0xbc, 0x2b, 0xb5, 0x09, 0xbe, 
	0xd8, 0x71, 0x9a, 0xbd, 0xd6, 0xef, 0x4e, 0x3e, 0xc0, 0xf3, 0xf5, 0x3d, 
	0x00, 0xee, 0x42, 0xbd, 0xa0, 0x55, 0xc9, 0xbc, 0xf3, 0xed, 0x83, 0xbe, 
	0x29, 0xff, 0x25, 0x3e, 0xeb, 0x9f, 0x62, 0xbd, 0x68, 0x0f, 0x9a, 0xbe, 
	0xc8, 0x27, 0x34, 0x3e, 0xca, 0x12, 0x92, 0x3e, 0xdc, 0xad, 0x02, 0x3e, 
	0x71, 0x68, 0xbf, 0xbc, 0xb0, 0xc3, 0x1d, 0x3c, 0xca, 0x85, 0x6d, 0xbe, 
	0xe4, 0xac, 0x04, 0xbe, 0x31, 0x74, 0x8c, 0x3e, 0x4f, 0x03, 0x75, 0x3e, 
	0xf6, 0x20, 0x59, 0xbe, 0xf7, 0xd9, 0x68, 0x3e, 0x7e, 0xc9, 0x9c, 0xbe, 
	0x3f, 0x0a, 0x48, 0xbe, 0xa6, 0x69, 0x25, 0xbe, 0x10, 0xab, 0xc2, 0xbe, 
	0x31, 0x5d, 0x92, 0x3d, 0x74, 0x25, 0xf7, 0xbd, 0xfd, 0x0b, 0xa7, 0xbe, 
	0xec, 0xb1, 0xc5, 0x3e, 0x05, 0x24, 0x9e, 0xbe, 0x02, 0xd6, 0x34, 0x3e, 
	0x6c, 0x46, 0x6c, 0x3e, 0x63, 0xae, 0x93, 0x3e, 0x90, 0x35, 0xca, 0x3d, 
	0x89, 0x6d, 0x49, 0x3e, 0x07, 0x2b, 0x46, 0xbe, 0xbc, 0x86, 0x7f, 0x3e, 
	0x7d, 0xd5, 0x4f, 0xbc, 0xc3, 0xe9, 0x03, 0x3e, 0x43, 0xa5, 0x84, 0xbe, 
	0x5c, 0xaa, 0xfc, 0x3a, 0xfb, 0x98, 0xe4, 0x3e, 0xb2, 0xd9, 0xbf, 0x3d, 
	0x76, 0xac, 0xc5, 0xbe, 0xc3, 0x31, 0x43, 0x3e, 0xf0, 0x70, 0x74, 0xbd, 
	0x0a, 0x2e, 0xc4, 0xbd, 0xe6, 0xe7, 0x6e, 0xbe, 0xd7, 0x63, 0x99, 0x3c, 
	0x9d, 0x2f, 0x70, 0xbe, 0xb3, 0x34, 0xa8, 0xbe, 0x7c, 0xeb, 0x1b, 0xbd, 
	0xb9, 0x03, 0x1a, 0xbe, 0xe8, 0xde, 0x88, 0xbe, 0xf6, 0xa4, 0x2a, 0x3d, 
	0x01, 0x40, 0x00, 0x3d, 0x0d, 0x57, 0x71, 0x3d, 0x4e, 0xea, 0x4a, 0x3e, 
	0x80, 0xe5, 0x16, 0x3c, 0x63, 0x8e, 0x9b, 0xbe, 0xf2, 0x64, 0x1b, 0x3e, 
	0xeb, 0xfb, 0x8f, 0x3e, 0x70, 0x51, 0xf9, 0x3c, 0x6d, 0xa4, 0x9b, 0x3e, 
	0xd8, 0xc8, 0x57, 0x3d, 0xbc, 0x94, 0xf2, 0x3d, 0x01, 0x59, 0x82, 0x3e, 
	0x78, 0xe6, 0xc8, 0xbd, 0x52, 0x10, 0x74, 0x3e, 0xcc, 0x18, 0xad, 0x3d, 
	0xcc, 0xe7, 0x89, 0xbe, 0x88, 0x99, 0x6c, 0x3d, 0x04, 0x10, 0xf7, 0x3d, 
	0xe0, 0x30, 0x12, 0xbd, 0x60, 0x49, 0xef, 0x3c, 0x68, 0xaa, 0x34, 0xbe, 
	0x0a, 0xd1, 0x4d, 0xbe, 0xce, 0xd4, 0x49, 0x3e, 0x10, 0x63, 0x59, 0x3d, 
	0x8a, 0x26, 0x4f, 0x3e, 0x82, 0x08, 0xef, 0xbd, 0x8d, 0x54, 0x2f, 0xbe, 
	0xda, 0x31, 0x31, 0xbe, 0x92, 0xd4, 0xfa, 0xbd, 0x4e, 0xd8, 0x21, 0x3e, 
	0xa5, 0x51, 0x9a, 0x3e, 0x0f, 0x44, 0x6e, 0xbe, 0xb0, 0xe2, 0xb7, 0xbc, 
	0xfd, 0xc8, 0x96, 0x3e, 0x58, 0xa8, 0x58, 0xbd, 0x88, 0x4c, 0xf9, 0x3d, 
	0xe8, 0xb9, 0xd3, 0x3d, 0xe6, 0xc0, 0x4d, 0xbe, 0xf4, 0x0f, 0xb5, 0x3d, 
	0x70, 0x3a, 0xce, 0xbc, 0xc4, 0x44, 0xe0, 0xbd, 0x07, 0xc0, 0x6a, 0xbe, 
	0xa4, 0x17, 0x84, 0xbe, 0x59, 0x9a, 0xb6, 0x3e, 0x3a, 0x0b, 0xd1, 0x3d, 
	0x72, 0xc4, 0xee, 0x3c, 0x6e, 0x8c, 0x81, 0x3e, 0x0d, 0xd8, 0x79, 0xbd, 
	0xac, 0xd4, 0x97, 0xbe, 0xc6, 0xd1, 0xc5, 0xbd, 0x91, 0xe8, 0xea, 0x3d, 
	0x48, 0x7c, 0x3c, 0x3e, 0x8e, 0x24, 0x83, 0x3e, 0x99, 0xd9, 0x40, 0x3e, 
	0x91, 0x1f, 0x40, 0x3e, 0x4a, 0x16, 0xee, 0xbd, 0xb4, 0xaa, 0xa1, 0xbd, 
	0x30, 0x7d, 0x13, 0xbd, 0x8f, 0xd2, 0x28, 0xbe, 0x1c, 0x38, 0x0a, 0x3e, 
	0x94, 0xb4, 0xb3, 0xbd, 0x38, 0xb6, 0x08, 0xbe, 0x45, 0x76, 0x82, 0x3e, 
	0x08, 0x08, 0x24, 0xbd, 0x00, 0xe6, 0x4e, 0x3a, 0xd2, 0xb3, 0x42, 0x3e, 
	0xce, 0x29, 0x33, 0xbe, 0x84, 0x53, 0x34, 0xbe, 0x40, 0x09, 0x37, 0x3c, 
	0xe6, 0xce, 0x75, 0x3e, 0x00, 0xd6, 0x5a, 0xbb, 0x9c, 0x08, 0x70, 0xbe, 
	0xd0, 0xc3, 0x34, 0xbd, 0xbb, 0x4e, 0x91, 0xbe, 0x34, 0xfa, 0x85, 0xbd, 
	0xc0, 0x76, 0x80, 0xbd, 0xaf, 0x30, 0x3b, 0xbe, 0xde, 0xab, 0x60, 0x3e, 
	0x08, 0xc2, 0x2d, 0x3d, 0x3a, 0xa5, 0x93, 0xbe, 0xba, 0x9a, 0x46, 0xbe, 
	0x20, 0xd8, 0xa2, 0x3c, 0xee, 0xa4, 0x66, 0xbe, 0x12, 0x40, 0x55, 0x3e, 
	0xc1, 0xb7, 0x92, 0x3e, 0x50, 0xa5, 0x2f, 0x3e, 0x88, 0x11, 0x38, 0xbd, 
	0x88, 0x0a, 0x4e, 0x3d, 0xc1, 0xa1, 0x1c, 0xbe, 0x00, 0x84, 0xa9, 0x3d, 
	0x64, 0x12, 0x3c, 0xbe, 0x00, 0xc0, 0x00, 0xba, 0x00, 0xb5, 0xbe, 0x3d, 
	0x6f, 0xd1, 0x9a, 0xbe, 0xfc, 0x16, 0x3e, 0xbd, 0x3f, 0x03, 0x84, 0x3d, 
	0x37, 0x25, 0x71, 0xbe, 0x29, 0x8c, 0xf9, 0xbd, 0x83, 0x0e, 0x33, 0xbd, 
	0x0c, 0x47, 0x86, 0xbe, 0x3d, 0x49, 0xed, 0xbc, 0x78, 0x6b, 0xcf, 0x3d, 
	0xcd, 0x75, 0xf8, 0x3d, 0xcf, 0xee, 0x15, 0x3e, 0xa0, 0x86, 0x40, 0x3e, 
	0xb9, 0x31, 0xa7, 0x3d, 0x5c, 0x43, 0xa2, 0x3c, 0xce, 0x6c, 0x74, 0x3e, 
	0x8b, 0xfd, 0xbb, 0x3d, 0x91, 0x9d, 0x66, 0xbe, 0xbb, 0x4c, 0xcf, 0x3d, 
	0x98, 0xf0, 0x91, 0x3e, 0x75, 0xec, 0x41, 0x3e, 0x72, 0x24, 0xb3, 0x3e, 
	0x2c, 0xcc, 0x1f, 0x3e, 0x0e, 0x0d, 0xb3, 0x3e, 0x30, 0x24, 0x26, 0x3e, 
	0xab, 0xa8, 0x21, 0xbd, 0x38, 0x6b, 0x25, 0x3e, 0x12, 0x8a, 0xae, 0x3d, 
	0xd1, 0xf0, 0x99, 0xbe, 0x8e, 0x72, 0x78, 0x3e, 0x60, 0x23, 0xb0, 0x3d, 
	0xee, 0xf0, 0x2e, 0xbe, 0x3d, 0x7e, 0x8e, 0xbe, 0x80, 0x87, 0xe2, 0xbc, 
	0xa0, 0x8d, 0x41, 0xbc, 0xa0, 0xf4, 0xfa, 0x3d, 0x00, 0x92, 0x39, 0x3c, 
	0x4e, 0xaa, 0x71, 0x3e, 0x25, 0xf6, 0x38, 0xbe, 0xb8, 0xa8, 0x33, 0xbe, 
	0x0d, 0xbd, 0x8e, 0xbe, 0x5d, 0x0b, 0x8b, 0x3e, 0x59, 0xeb, 0xca, 0x3b, 
	0x5e, 0x22, 0xe5, 0x3d, 0x03, 0x5b, 0xbc, 0x3e, 0xa6, 0xac, 0xd2, 0x3d, 
	0xdb, 0x40, 0xaa, 0x3e, 0x65, 0xe3, 0x93, 0xbe, 0xa2, 0x0a, 0x07, 0xbe, 
	0xfa, 0xfd, 0xd5, 0xbd, 0xbe, 0x53, 0x40, 0xbe, 0xf3, 0xcb, 0x49, 0x3e, 
	0xef, 0x3f, 0x57, 0xbe, 0x15, 0x67, 0x05, 0x3c, 0xc0, 0x6b, 0xd5, 0x3b, 
	0x93, 0x63, 0x98, 0x3e, 0xca, 0x37, 0x4c, 0x3e, 0x2e, 0xfc, 0x72, 0xbe, 
	0x9c, 0xa0, 0xae, 0x3d, 0xb0, 0x3b, 0xa1, 0xbc, 0x0f, 0xa3, 0x86, 0xbe, 
	0x16, 0x9f, 0xe6, 0xbd, 0x90, 0x32, 0xf5, 0x3d, 0x82, 0x44, 0xa2, 0xbd, 
	0xc8, 0x0e, 0x96, 0xbd, 0xc3, 0x0b, 0x34, 0xbe, 0x3e, 0x28, 0x60, 0xbe, 
	0xfe, 0x14, 0x24, 0xbe, 0xc0, 0xf1, 0x9a, 0xbe, 0x8d, 0xbe, 0x85, 0xbe, 
	0xe6, 0xd1, 0x9f, 0xbe, 0xb1, 0xd3, 0x9b, 0xbe, 0x4e, 0x89, 0x8b, 0x3d, 
	0x98, 0x06, 0x85, 0xbe, 0x03, 0x8e, 0x80, 0xbd, 0xa9, 0x07, 0xa3, 0xbe, 
	0x6a, 0x3d, 0x76, 0x3d, 0xb7, 0x8e, 0x81, 0xbd, 0x46, 0xa3, 0x04, 0x3e, 
	0x73, 0xab, 0xee, 0x3c, 0x33, 0xaf, 0x32, 0x3e, 0x2f, 0x28, 0x5a, 0xbd, 
	0x01, 0x07, 0xa5, 0x3d, 0x1b, 0x32, 0x8d, 0x3c, 0xda, 0x53, 0x93, 0x3e, 
	0xc9, 0x1a, 0x7c, 0x3d, 0x02, 0xa5, 0xa4, 0xbe, 0x63, 0x2d, 0x45, 0x3e, 
	0x9c, 0x51, 0x26, 0xbe, 0x32, 0xec, 0x82, 0xbe, 0xc9, 0x14, 0x7b, 0x3e, 
	0x32, 0x88, 0x87, 0x3e, 0xc2, 0x42, 0x85, 0x3e, 0xe0, 0xaf, 0x27, 0x3d, 
	0x80, 0x9e, 0x79, 0xbb, 0xa3, 0xa2, 0x90, 0x3e, 0x68, 0xee, 0x11, 0xbe, 
	0x48, 0xd7, 0x65, 0xbe, 0x0e, 0x15, 0x1d, 0xbe, 0xdd, 0x5e, 0x83, 0x3e, 
	0x68, 0x6a, 0x22, 0x3e, 0x49, 0xab, 0x8e, 0x3e, 0xc2, 0xb5, 0x76, 0x3e, 
	0x5d, 0x67, 0x19, 0xbe, 0x60, 0x33, 0x3c, 0x3d, 0x2b, 0x8c, 0x9d, 0xbe, 
	0xc1, 0x4b, 0x95, 0xbe, 0x80, 0x94, 0x4b, 0x3d, 0x01, 0x48, 0x30, 0xbe, 
	0x35, 0x47, 0x81, 0x3e, 0x8a, 0xa6, 0x4e, 0x3e, 0x7c, 0x14, 0x81, 0x3d, 
	0xf8, 0x41, 0x6b, 0xbe, 0xb2, 0xcd, 0x84, 0xbd, 0xdd, 0x7d, 0x84, 0xbe, 
	0xaa, 0x96, 0x23, 0x3e, 0xda, 0x8e, 0x6e, 0x3e, 0xf3, 0x8d, 0x84, 0xbe, 
	0xee, 0x91, 0x1b, 0xbe, 0x89, 0x2a, 0x23, 0xbe, 0xe2, 0x11, 0x5b, 0xbe, 
	0x40, 0xe1, 0x85, 0x3d, 0x2e, 0x52, 0x1d, 0xbe, 0x73, 0x3b, 0x99, 0x3e, 
	0x61, 0xb3, 0x95, 0x3e, 0x8a, 0xda, 0x5b, 0x3e, 0xbb, 0x54, 0x19, 0xbe, 
	0x78, 0x2b, 0x63, 0x3d, 0x10, 0x0a, 0x38, 0x3e, 0x94, 0x33, 0xff, 0xbd, 
	0xb4, 0x44, 0x10, 0xbe, 0xa3, 0x52, 0x60, 0xbe, 0x6a, 0x3e, 0x37, 0xbe, 
	0x48, 0x50, 0x87, 0xbe, 0xb7, 0x73, 0x04, 0xbe, 0xb6, 0xd8, 0xbc, 0xbe, 
	0xd7, 0x1f, 0x33, 0xbd, 0x46, 0x2d, 0x82, 0xbe, 0xaf, 0x78, 0xa2, 0x3e, 
	0x7e, 0xcd, 0xeb, 0xbd, 0xaa, 0xa3, 0x82, 0xbe, 0x34, 0x73, 0xe0, 0xbd, 
	0x9f, 0xf2, 0xda, 0xbd, 0x51, 0x23, 0x97, 0xbe, 0x29, 0x20, 0xbe, 0x3d, 
	0xc0, 0xaa, 0x86, 0xbc, 0x4a, 0x13, 0x01, 0x3e, 0x60, 0x52, 0x85, 0x3c, 
	0x36, 0xc8, 0x40, 0x3e, 0x06, 0xc6, 0x80, 0xbe, 0x43, 0x8d, 0x3d, 0xbe, 
	0x0c, 0xbc, 0x72, 0xbe, 0xe0, 0xbf, 0x7b, 0x3c, 0x88, 0x7d, 0x5f, 0xbd, 
	0xf4, 0xfa, 0x19, 0x3e, 0x74, 0x49, 0x1c, 0xbe, 0xde, 0x3a, 0x52, 0x3e, 
	0x2e, 0xef, 0xf7, 0xbd, 0xc4, 0xe4, 0x41, 0xbe, 0x00, 0xc9, 0xcb, 0xba, 
	0x1a, 0x23, 0x07, 0x3e, 0x91, 0x3e, 0x80, 0x3e, 0x74, 0x1c, 0x03, 0xbe, 
	0xc0, 0x8d, 0xd1, 0x3c, 0xb1, 0x16, 0x16, 0xbe, 0xac, 0x8a, 0x79, 0xbd, 
	0xcf, 0x1c, 0x0d, 0xbe, 0x52, 0xe6, 0x6f, 0xbe, 0xbb, 0x9e, 0x28, 0xbe, 
	0xd6, 0x74, 0x04, 0xbe, 0xea, 0x62, 0xac, 0xbd, 0x4a, 0x32, 0x74, 0x3e, 
	0xaf, 0x7d, 0x89, 0x3e, 0x93, 0x15, 0x86, 0xbe, 0x76, 0x1c, 0x28, 0xbe, 
	0xba, 0x7c, 0x0d, 0xbe, 0x2e, 0x3f, 0x5c, 0xbe, 0x44, 0x09, 0x1a, 0x3e, 
	0x00, 0xb6, 0xa4, 0x3a, 0xb0, 0xd9, 0x6a, 0x3d, 0x50, 0x09, 0xb3, 0x3d, 
	0xe3, 0x34, 0x86, 0x3e, 0xcc, 0xd5, 0x06, 0x3e, 0xa6, 0x3a, 0x4a, 0xbe, 
	0xc0, 0x10, 0xda, 0x3d, 0xc0, 0x15, 0x59, 0xbd, 0x01, 0x82, 0x39, 0xbe, 
	0x3a, 0xa0, 0x49, 0x3e, 0xca, 0x02, 0xb3, 0xbd, 0xf6, 0x44, 0x3e, 0x3e, 
	0xe9, 0x28, 0x98, 0xbe, 0x06, 0x5c, 0x49, 0x3e, 0xd6, 0xab, 0x37, 0x3e, 
	0x78, 0x4e, 0xf1, 0x3d, 0xe4, 0x6c, 0xdc, 0xbd, 0x78, 0x74, 0xb7, 0x3d, 
	0x7b, 0x58, 0x23, 0xbe, 0xd1, 0xc6, 0x94, 0x3e, 0x90, 0x2f, 0x2e, 0xbe, 
	0xa3, 0x69, 0xc3, 0x3c, 0x88, 0xbc, 0x44, 0x3e, 0xa7, 0x0c, 0x9f, 0x3e, 
	0xc2, 0x89, 0xa0, 0x3c, 0x8d, 0x2d, 0xb8, 0xbd, 0xa0, 0xaf, 0x50, 0xbd, 
	0xb8, 0xe1, 0xbe, 0x3d, 0xc8, 0x8b, 0xce, 0xbe, 0x3a, 0x80, 0x19, 0x3e, 
	0x09, 0x50, 0x6e, 0x3c, 0x3c, 0xb2, 0x54, 0x3e, 0x90, 0xc5, 0x18, 0x3d, 
	0xc8, 0x56, 0x2e, 0xbe, 0xc9, 0x5a, 0x34, 0xbe, 0x43, 0x3d, 0x88, 0x3e, 
	0xb7, 0xf2, 0x22, 0xbe, 0x66, 0xf8, 0x11, 0x3e, 0x4c, 0x05, 0xe2, 0x3d, 
	0xac, 0x10, 0xbe, 0xbd, 0x4c, 0x19, 0x04, 0x3e, 0x45, 0xcb, 0x7e, 0xbe, 
	0x8f, 0x74, 0x90, 0x3e, 0xa0, 0x89, 0xf6, 0xbd, 0xb8, 0x39, 0x5e, 0xbe, 
	0x6f, 0x32, 0x81, 0x3e, 0xc2, 0xc5, 0x6b, 0x3e, 0x28, 0xe2, 0xe0, 0x3d, 
	0x62, 0x6a, 0x70, 0xbe, 0x68, 0x01, 0x7b, 0x3d, 0xc3, 0x66, 0x2b, 0xbe, 
	0x00, 0x30, 0x24, 0xbd, 0x64, 0x9c, 0xff, 0xbd, 0x72, 0x4c, 0x0d, 0x3e, 
	0xac, 0xfc, 0xea, 0xbd, 0x44, 0xe5, 0xe5, 0x3d, 0xf6, 0x26, 0x5d, 0xbe, 
	0xf6, 0xb5, 0xfc, 0xbd, 0xaa, 0xfd, 0xff, 0xff, 0x04, 0x00, 0x00, 0x00, 
	0xc8, 0x00, 0x00, 0x00, 0x00, 0x00, 0x00, 0x00, 0xd2, 0x67, 0x28, 0x3d, 
	0x55, 0xcb, 0x79, 0x3d, 0x73, 0x34, 0x11, 0xbd, 0x7e, 0x28, 0x7c, 0xbd, 
	0x00, 0x00, 0x00, 0x00, 0x00, 0x00, 0x00, 0x00, 0x00, 0x00, 0x00, 0x00, 
	0xe8, 0xa8, 0x85, 0x3c, 0x00, 0x00, 0x00, 0x00, 0x00, 0x00, 0x00, 0x00, 
	0x00, 0x00, 0x00, 0x00, 0x00, 0x00, 0x00, 0x00, 0x94, 0x73, 0xc0, 0xbc, 
	0xd8, 0xa5, 0x4b, 0x3d, 0x00, 0x00, 0x00, 0x00, 0x24, 0xbc, 0x1d, 0x3c, 
	0x00, 0x00, 0x00, 0x00, 0x00, 0x00, 0x00, 0x00, 0x00, 0x00, 0x00, 0x00, 
	0x00, 0x00, 0x00, 0x00, 0xed, 0x0e, 0x57, 0xbd, 0x75, 0x3d, 0x8e, 0xbd, 
	0x0c, 0x6f, 0x86, 0xbc, 0x7a, 0xf7, 0x08, 0x3c, 0x00, 0x00, 0x00, 0x00, 
	0x00, 0x00, 0x00, 0x00, 0x00, 0x00, 0x00, 0x00, 0xb8, 0x73, 0x46, 0x3c, 
	0x00, 0x00, 0x00, 0x00, 0x00, 0x00, 0x00, 0x00, 0x00, 0x00, 0x00, 0x00, 
	0xe3, 0xfd, 0x75, 0xbd, 0x90, 0x2b, 0x7b, 0x3c, 0x00, 0x00, 0x00, 0x00, 
	0xcc, 0xb2, 0x9f, 0x3d, 0x00, 0x00, 0x00, 0x00, 0x5e, 0x22, 0x87, 0xbc, 
	0xe4, 0x62, 0x13, 0x3d, 0x00, 0x00, 0x00, 0x00, 0x00, 0x00, 0x00, 0x00, 
	0x00, 0x00, 0x00, 0x00, 0x81, 0xcd, 0x67, 0xbd, 0x00, 0x00, 0x00, 0x00, 
	0x00, 0x00, 0x00, 0x00, 0x00, 0x00, 0x00, 0x00, 0x00, 0x00, 0x00, 0x00, 
	0x26, 0x7b, 0x8d, 0x3c, 0x00, 0x00, 0x00, 0x00, 0x00, 0x00, 0x00, 0x00, 
	0x7e, 0xfe, 0xff, 0xff, 0x04, 0x00, 0x00, 0x00, 0x0c, 0x00, 0x00, 0x00, 
	0xb8, 0xdc, 0x56, 0xbd, 0xab, 0xad, 0x73, 0x3d, 0xa6, 0x01, 0x91, 0xba, 
	0x96, 0xfe, 0xff, 0xff, 0x04, 0x00, 0x00, 0x00, 0xc8, 0x00, 0x00, 0x00, 
	0xf0, 0x8f, 0x16, 0xbd, 0x99, 0x3e, 0x3f, 0x3d, 0x72, 0x48, 0x81, 0xbd, 
	0x00, 0x00, 0x00, 0x00, 0x00, 0x00, 0x00, 0x00, 0x25, 0xc3, 0x2c, 0xbc, 
	0x00, 0x00, 0x00, 0x00, 0xdc, 0x1a, 0x8f, 0xbb, 0x00, 0x00, 0x00, 0x00, 
	0x00, 0x00, 0x00, 0x00, 0x15, 0x14, 0x0e, 0x3d, 0x62, 0xf6, 0x96, 0x3c, 
	0x00, 0x00, 0x00, 0x00, 0x37, 0xba, 0x33, 0xbc, 0x00, 0x00, 0x00, 0x00, 
	0x00, 0x00, 0x00, 0x00, 0xb6, 0x2f, 0xbb, 0xbb, 0x68, 0xf2, 0x79, 0xbb, 
	0xf5, 0x61, 0x3f, 0xbc, 0x44, 0xa9, 0xb6, 0xba, 0xc6, 0x49, 0x28, 0xbd, 
	0x97, 0x88, 0xab, 0xbc, 0x00, 0x00, 0x00, 0x00, 0x00, 0x00, 0x00, 0x00, 
	0x00, 0x00, 0x00, 0x00, 0x32, 0xa6, 0x23, 0xbc, 0xaf, 0xce, 0x86, 0xbd, 
	0x00, 0x00, 0x00, 0x00, 0x00, 0x00, 0x00, 0x00, 0x82, 0x53, 0x73, 0xbd, 
	0x0f, 0xbf, 0xe6, 0xbb, 0x00, 0x00, 0x00, 0x00, 0x00, 0x00, 0x00, 0x00, 
	0x3c, 0x9a, 0x87, 0x3d, 0xdf, 0x41, 0x84, 0x3d, 0x00, 0x00, 0x00, 0x00, 
	0x00, 0x00, 0x00, 0x00, 0x5c, 0x81, 0x13, 0xbd, 0x15, 0x86, 0x17, 0xbc, 
	0x00, 0x00, 0x00, 0x00, 0xca, 0x39, 0x5f, 0x3c, 0x00, 0x00, 0x00, 0x00, 
	0xd1, 0x22, 0xfc, 0xbb, 0x9a, 0x92, 0x4a, 0x3d, 0x00, 0x00, 0x00, 0x00, 
	0x1d, 0x84, 0x26, 0x3d, 0x00, 0x00, 0x00, 0x00, 0x95, 0x4c, 0x75, 0x3d, 
	0xd2, 0x1f, 0x31, 0x3d, 0x52, 0xc6, 0xc4, 0xbb, 0x5c, 0xfa, 0xff, 0xff, 
	0x60, 0xfa, 0xff, 0xff, 0x0f, 0x00, 0x00, 0x00, 0x4d, 0x4c, 0x49, 0x52, 
	0x20, 0x43, 0x6f, 0x6e, 0x76, 0x65, 0x72, 0x74, 0x65, 0x64, 0x2e, 0x00, 
	0x01, 0x00, 0x00, 0x00, 0x14, 0x00, 0x00, 0x00, 0x00, 0x00, 0x0e, 0x00, 
	0x18, 0x00, 0x14, 0x00, 0x10, 0x00, 0x0c, 0x00, 0x08, 0x00, 0x04, 0x00, 
	0x0e, 0x00, 0x00, 0x00, 0x14, 0x00, 0x00, 0x00, 0x1c, 0x00, 0x00, 0x00, 
	0x24, 0x01, 0x00, 0x00, 0x28, 0x01, 0x00, 0x00, 0x2c, 0x01, 0x00, 0x00, 
	0x04, 0x00, 0x00, 0x00, 0x6d, 0x61, 0x69, 0x6e, 0x00, 0x00, 0x00, 0x00, 
	0x04, 0x00, 0x00, 0x00, 0xcc, 0x00, 0x00, 0x00, 0x84, 0x00, 0x00, 0x00, 
	0x50, 0x00, 0x00, 0x00, 0x14, 0x00, 0x00, 0x00, 0x00, 0x00, 0x0e, 0x00, 
	0x1a, 0x00, 0x14, 0x00, 0x10, 0x00, 0x0c, 0x00, 0x0b, 0x00, 0x04, 0x00, 
	0x0e, 0x00, 0x00, 0x00, 0x1c, 0x00, 0x00, 0x00, 0x00, 0x00, 0x00, 0x09, 
	0x1c, 0x00, 0x00, 0x00, 0x20, 0x00, 0x00, 0x00, 0x01, 0x00, 0x00, 0x00, 
	0x00, 0x00, 0x06, 0x00, 0x08, 0x00, 0x04, 0x00, 0x06, 0x00, 0x00, 0x00, 
	0x00, 0x00, 0x80, 0x3f, 0x01, 0x00, 0x00, 0x00, 0x0a, 0x00, 0x00, 0x00, 
	0x01, 0x00, 0x00, 0x00, 0x09, 0x00, 0x00, 0x00, 0x9a, 0xff, 0xff, 0xff, 
	0x10, 0x00, 0x00, 0x00, 0x00, 0x00, 0x00, 0x08, 0x0c, 0x00, 0x00, 0x00, 
	0x10, 0x00, 0x00, 0x00, 0x24, 0xfb, 0xff, 0xff, 0x01, 0x00, 0x00, 0x00, 
	0x09, 0x00, 0x00, 0x00, 0x03, 0x00, 0x00, 0x00, 0x08, 0x00, 0x00, 0x00, 
	0x06, 0x00, 0x00, 0x00, 0x02, 0x00, 0x00, 0x00, 0xca, 0xff, 0xff, 0xff, 
	0x10, 0x00, 0x00, 0x00, 0x00, 0x00, 0x00, 0x08, 0x10, 0x00, 0x00, 0x00, 
	0x14, 0x00, 0x00, 0x00, 0xba, 0xff, 0xff, 0xff, 0x00, 0x00, 0x00, 0x01, 
	0x01, 0x00, 0x00, 0x00, 0x08, 0x00, 0x00, 0x00, 0x03, 0x00, 0x00, 0x00, 
	0x07, 0x00, 0x00, 0x00, 0x05, 0x00, 0x00, 0x00, 0x01, 0x00, 0x00, 0x00, 
	0x00, 0x00, 0x0e, 0x00, 0x16, 0x00, 0x00, 0x00, 0x10, 0x00, 0x0c, 0x00, 
	0x0b, 0x00, 0x04, 0x00, 0x0e, 0x00, 0x00, 0x00, 0x18, 0x00, 0x00, 0x00, 
	0x00, 0x00, 0x00, 0x08, 0x18, 0x00, 0x00, 0x00, 0x1c, 0x00, 0x00, 0x00, 
	0x00, 0x00, 0x06, 0x00, 0x08, 0x00, 0x07, 0x00, 0x06, 0x00, 0x00, 0x00, 
	0x00, 0x00, 0x00, 0x01, 0x01, 0x00, 0x00, 0x00, 0x07, 0x00, 0x00, 0x00, 
	0x03, 0x00, 0x00, 0x00, 0x00, 0x00, 0x00, 0x00, 0x04, 0x00, 0x00, 0x00, 
	0x03, 0x00, 0x00, 0x00, 0x01, 0x00, 0x00, 0x00, 0x0a, 0x00, 0x00, 0x00, 
	0x01, 0x00, 0x00, 0x00, 0x00, 0x00, 0x00, 0x00, 0x0b, 0x00, 0x00, 0x00, 
	0x04, 0x04, 0x00, 0x00, 0x94, 0x03, 0x00, 0x00, 0x24, 0x03, 0x00, 0x00, 
	0xd0, 0x02, 0x00, 0x00, 0x88, 0x02, 0x00, 0x00, 0x3c, 0x02, 0x00, 0x00, 
	0xf0, 0x01, 0x00, 0x00, 0x68, 0x01, 0x00, 0x00, 0xd8, 0x00, 0x00, 0x00, 
	0x60, 0x00, 0x00, 0x00, 0x04, 0x00, 0x00, 0x00, 0x3e, 0xfc, 0xff, 0xff, 
	0x00, 0x00, 0x00, 0x01, 0x14, 0x00, 0x00, 0x00, 0x1c, 0x00, 0x00, 0x00, 
	0x1c, 0x00, 0x00, 0x00, 0x0b, 0x00, 0x00, 0x00, 0x34, 0x00, 0x00, 0x00, 
	0x02, 0x00, 0x00, 0x00, 0xff, 0xff, 0xff, 0xff, 0x03, 0x00, 0x00, 0x00, 
	0x28, 0xfc, 0xff, 0xff, 0x19, 0x00, 0x00, 0x00, 0x53, 0x74, 0x61, 0x74, 
	0x65, 0x66, 0x75, 0x6c, 0x50, 0x61, 0x72, 0x74, 0x69, 0x74, 0x69, 0x6f, 
	0x6e, 0x65, 0x64, 0x43, 0x61, 0x6c, 0x6c, 0x3a, 0x30, 0x00, 0x00, 0x00, 
	0x02, 0x00, 0x00, 0x00, 0x01, 0x00, 0x00, 0x00, 0x03, 0x00, 0x00, 0x00, 
	0x96, 0xfc, 0xff, 0xff, 0x00, 0x00, 0x00, 0x01, 0x14, 0x00, 0x00, 0x00, 
	0x1c, 0x00, 0x00, 0x00, 0x1c, 0x00, 0x00, 0x00, 0x0a, 0x00, 0x00, 0x00, 
	0x50, 0x00, 0x00, 0x00, 0x02, 0x00, 0x00, 0x00, 0xff, 0xff, 0xff, 0xff, 
	0x03, 0x00, 0x00, 0x00, 0x80, 0xfc, 0xff, 0xff, 0x34, 0x00, 0x00, 0x00, 
	0x73, 0x65, 0x71, 0x75, 0x65, 0x6e, 0x74, 0x69, 0x61, 0x6c, 0x2f, 0x64, 
	0x65, 0x6e, 0x73, 0x65, 0x5f, 0x32, 0x2f, 0x4d, 0x61, 0x74, 0x4d, 0x75, 
	0x6c, 0x3b, 0x73, 0x65, 0x71, 0x75, 0x65, 0x6e, 0x74, 0x69, 0x61, 0x6c, 
	0x2f, 0x64, 0x65, 0x6e, 0x73, 0x65, 0x5f, 0x32, 0x2f, 0x42, 0x69, 0x61, 
	0x73, 0x41, 0x64, 0x64, 0x00, 0x00, 0x00, 0x00, 0x02, 0x00, 0x00, 0x00, 
	0x01, 0x00, 0x00, 0x00, 0x03, 0x00, 0x00, 0x00, 0x0a, 0xfd, 0xff, 0xff, 
	0x00, 0x00, 0x00, 0x01, 0x14, 0x00, 0x00, 0x00, 0x1c, 0x00, 0x00, 0x00, 
	0x1c, 0x00, 0x00, 0x00, 0x09, 0x00, 0x00, 0x00, 0x68, 0x00, 0x00, 0x00, 
	0x02, 0x00, 0x00, 0x00, 0xff, 0xff, 0xff, 0xff, 0x32, 0x00, 0x00, 0x00, 
	0xf4, 0xfc, 0xff, 0xff, 0x4c, 0x00, 0x00, 0x00, 0x73, 0x65, 0x71, 0x75, 
	0x65, 0x6e, 0x74, 0x69, 0x61, 0x6c, 0x2f, 0x64, 0x65, 0x6e, 0x73, 0x65, 
	0x5f, 0x31, 0x2f, 0x4d, 0x61, 0x74, 0x4d, 0x75, 0x6c, 0x3b, 0x73, 0x65, 
	0x71, 0x75, 0x65, 0x6e, 0x74, 0x69, 0x61, 0x6c, 0x2f, 0x64, 0x65, 0x6e, 
	0x73, 0x65, 0x5f, 0x31, 0x2f, 0x52, 0x65, 0x6c, 0x75, 0x3b, 0x73, 0x65, 
	0x71, 0x75, 0x65, 0x6e, 0x74, 0x69, 0x61, 0x6c, 0x2f, 0x64, 0x65, 0x6e, 
	0x73, 0x65, 0x5f, 0x31, 0x2f, 0x42, 0x69, 0x61, 0x73, 0x41, 0x64, 0x64, 
	0x00, 0x00, 0x00, 0x00, 0x02, 0x00, 0x00, 0x00, 0x01, 0x00, 0x00, 0x00, 
	0x32, 0x00, 0x00, 0x00, 0x96, 0xfd, 0xff, 0xff, 0x00, 0x00, 0x00, 0x01, 
	0x14, 0x00, 0x00, 0x00, 0x1c, 0x00, 0x00, 0x00, 0x1c, 0x00, 0x00, 0x00, 
	0x08, 0x00, 0x00, 0x00, 0x60, 0x00, 0x00, 0x00, 0x02, 0x00, 0x00, 0x00, 
	0xff, 0xff, 0xff, 0xff, 0x32, 0x00, 0x00, 0x00, 0x80, 0xfd, 0xff, 0xff, 
	0x46, 0x00, 0x00, 0x00, 0x73, 0x65, 0x71, 0x75, 0x65, 0x6e, 0x74, 0x69, 
	0x61, 0x6c, 0x2f, 0x64, 0x65, 0x6e, 0x73, 0x65, 0x2f, 0x4d, 0x61, 0x74, 
	0x4d, 0x75, 0x6c, 0x3b, 0x73, 0x65, 0x71, 0x75, 0x65, 0x6e, 0x74, 0x69, 
	0x61, 0x6c, 0x2f, 0x64, 0x65, 0x6e, 0x73, 0x65, 0x2f, 0x52, 0x65, 0x6c, 
	0x75, 0x3b, 0x73, 0x65, 0x71, 0x75, 0x65, 0x6e, 0x74, 0x69, 0x61, 0x6c, 
	0x2f, 0x64, 0x65, 0x6e, 0x73, 0x65, 0x2f, 0x42, 0x69, 0x61, 0x73, 0x41, 
	0x64, 0x64, 0x00, 0x00, 0x02, 0x00, 0x00, 0x00, 0x01, 0x00, 0x00, 0x00, 
	0x32, 0x00, 0x00, 0x00, 0x86, 0xfe, 0xff, 0xff, 0x00, 0x00, 0x00, 0x01, 
	0x10, 0x00, 0x00, 0x00, 0x10, 0x00, 0x00, 0x00, 0x07, 0x00, 0x00, 0x00, 
	0x28, 0x00, 0x00, 0x00, 0xf4, 0xfd, 0xff, 0xff, 0x19, 0x00, 0x00, 0x00, 
	0x73, 0x65, 0x71, 0x75, 0x65, 0x6e, 0x74, 0x69, 0x61, 0x6c, 0x2f, 0x64, 
	0x65, 0x6e, 0x73, 0x65, 0x5f, 0x32, 0x2f, 0x4d, 0x61, 0x74, 0x4d, 0x75, 
	0x6c, 0x00, 0x00, 0x00, 0x02, 0x00, 0x00, 0x00, 0x03, 0x00, 0x00, 0x00, 
	0x32, 0x00, 0x00, 0x00, 0xce, 0xfe, 0xff, 0xff, 0x00, 0x00, 0x00, 0x01, 
	0x10, 0x00, 0x00, 0x00, 0x10, 0x00, 0x00, 0x00, 0x06, 0x00, 0x00, 0x00, 
	0x28, 0x00, 0x00, 0x00, 0x3c, 0xfe, 0xff, 0xff, 0x19, 0x00, 0x00, 0x00, 
	0x73, 0x65, 0x71, 0x75, 0x65, 0x6e, 0x74, 0x69, 0x61, 0x6c, 0x2f, 0x64, 
	0x65, 0x6e, 0x73, 0x65, 0x5f, 0x31, 0x2f, 0x4d, 0x61, 0x74, 0x4d, 0x75, 
	0x6c, 0x00, 0x00, 0x00, 0x02, 0x00, 0x00, 0x00, 0x32, 0x00, 0x00, 0x00, 
	0x32, 0x00, 0x00, 0x00, 0x16, 0xff, 0xff, 0xff, 0x00, 0x00, 0x00, 0x01, 
	0x10, 0x00, 0x00, 0x00, 0x10, 0x00, 0x00, 0x00, 0x05, 0x00, 0x00, 0x00, 
	0x24, 0x00, 0x00, 0x00, 0x84, 0xfe, 0xff, 0xff, 0x17, 0x00, 0x00, 0x00, 
	0x73, 0x65, 0x71, 0x75, 0x65, 0x6e, 0x74, 0x69, 0x61, 0x6c, 0x2f, 0x64, 
	0x65, 0x6e, 0x73, 0x65, 0x2f, 0x4d, 0x61, 0x74, 0x4d, 0x75, 0x6c, 0x00, 
	0x02, 0x00, 0x00, 0x00, 0x32, 0x00, 0x00, 0x00, 0x0d, 0x00, 0x00, 0x00, 
	0x5a, 0xff, 0xff, 0xff, 0x00, 0x00, 0x00, 0x01, 0x10, 0x00, 0x00, 0x00, 
	0x10, 0x00, 0x00, 0x00, 0x04, 0x00, 0x00, 0x00, 0x34, 0x00, 0x00, 0x00, 
	0xc8, 0xfe, 0xff, 0xff, 0x27, 0x00, 0x00, 0x00, 0x73, 0x65, 0x71, 0x75, 
	0x65, 0x6e, 0x74, 0x69, 0x61, 0x6c, 0x2f, 0x64, 0x65, 0x6e, 0x73, 0x65, 
	0x2f, 0x42, 0x69, 0x61, 0x73, 0x41, 0x64, 0x64, 0x2f, 0x52, 0x65, 0x61, 
	0x64, 0x56, 0x61, 0x72, 0x69, 0x61, 0x62, 0x6c, 0x65, 0x4f, 0x70, 0x00, 
	0x01, 0x00, 0x00, 0x00, 0x32, 0x00, 0x00, 0x00, 0xaa, 0xff, 0xff, 0xff, 
	0x00, 0x00, 0x00, 0x01, 0x10, 0x00, 0x00, 0x00, 0x10, 0x00, 0x00, 0x00, 
	0x03, 0x00, 0x00, 0x00, 0x38, 0x00, 0x00, 0x00, 0x18, 0xff, 0xff, 0xff, 
	0x29, 0x00, 0x00, 0x00, 0x73, 0x65, 0x71, 0x75, 0x65, 0x6e, 0x74, 0x69, 
	0x61, 0x6c, 0x2f, 0x64, 0x65, 0x6e, 0x73, 0x65, 0x5f, 0x32, 0x2f, 0x42, 
	0x69, 0x61, 0x73, 0x41, 0x64, 0x64, 0x2f, 0x52, 0x65, 0x61, 0x64, 0x56, 
	0x61, 0x72, 0x69, 0x61, 0x62, 0x6c, 0x65, 0x4f, 0x70, 0x00, 0x00, 0x00, 
	0x01, 0x00, 0x00, 0x00, 0x03, 0x00, 0x00, 0x00, 0x00, 0x00, 0x16, 0x00, 
	0x18, 0x00, 0x14, 0x00, 0x00, 0x00, 0x10, 0x00, 0x0c, 0x00, 0x08, 0x00, 
	0x00, 0x00, 0x00, 0x00, 0x00, 0x00, 0x07, 0x00, 0x16, 0x00, 0x00, 0x00, 
	0x00, 0x00, 0x00, 0x01, 0x10, 0x00, 0x00, 0x00, 0x10, 0x00, 0x00, 0x00, 
	0x02, 0x00, 0x00, 0x00, 0x38, 0x00, 0x00, 0x00, 0x84, 0xff, 0xff, 0xff, 
	0x29, 0x00, 0x00, 0x00, 0x73, 0x65, 0x71, 0x75, 0x65, 0x6e, 0x74, 0x69, 
	0x61, 0x6c, 0x2f, 0x64, 0x65, 0x6e, 0x73, 0x65, 0x5f, 0x31, 0x2f, 0x42, 
	0x69, 0x61, 0x73, 0x41, 0x64, 0x64, 0x2f, 0x52, 0x65, 0x61, 0x64, 0x56, 
	0x61, 0x72, 0x69, 0x61, 0x62, 0x6c, 0x65, 0x4f, 0x70, 0x00, 0x00, 0x00, 
	0x01, 0x00, 0x00, 0x00, 0x32, 0x00, 0x00, 0x00, 0x00, 0x00, 0x16, 0x00, 
	0x1c, 0x00, 0x18, 0x00, 0x00, 0x00, 0x14, 0x00, 0x10, 0x00, 0x0c, 0x00, 
	0x00, 0x00, 0x00, 0x00, 0x08, 0x00, 0x07, 0x00, 0x16, 0x00, 0x00, 0x00, 
	0x00, 0x00, 0x00, 0x01, 0x14, 0x00, 0x00, 0x00, 0x20, 0x00, 0x00, 0x00, 
	0x20, 0x00, 0x00, 0x00, 0x01, 0x00, 0x00, 0x00, 0x3c, 0x00, 0x00, 0x00, 
	0x02, 0x00, 0x00, 0x00, 0xff, 0xff, 0xff, 0xff, 0x0d, 0x00, 0x00, 0x00, 
	0x04, 0x00, 0x04, 0x00, 0x04, 0x00, 0x00, 0x00, 0x1d, 0x00, 0x00, 0x00, 
	0x73, 0x65, 0x72, 0x76, 0x69, 0x6e, 0x67, 0x5f, 0x64, 0x65, 0x66, 0x61, 
	0x75, 0x6c, 0x74, 0x5f, 0x64, 0x65, 0x6e, 0x73, 0x65, 0x5f, 0x69, 0x6e, 
	0x70, 0x75, 0x74, 0x3a, 0x30, 0x00, 0x00, 0x00, 0x02, 0x00, 0x00, 0x00, 
	0x01, 0x00, 0x00, 0x00, 0x0d, 0x00, 0x00, 0x00, 0x02, 0x00, 0x00, 0x00, 
	0x20, 0x00, 0x00, 0x00, 0x04, 0x00, 0x00, 0x00, 0xf4, 0xff, 0xff, 0xff, 
	0x19, 0x00, 0x00, 0x00, 0x00, 0x00, 0x00, 0x19, 0x0c, 0x00, 0x0c, 0x00, 
	0x0b, 0x00, 0x00, 0x00, 0x00, 0x00, 0x04, 0x00, 0x0c, 0x00, 0x00, 0x00, 
	0x09, 0x00, 0x00, 0x00, 0x00, 0x00, 0x00, 0x09
};
const int wine_model_len = 15704;