#ifdef __has_attribute
#define HAVE_ATTRIBUTE(x) __has_attribute(x)
#else
#define HAVE_ATTRIBUTE(x) 0
#endif
#if HAVE_ATTRIBUTE(aligned) || (defined(__GNUC__) && !defined(__clang__))
#define DATA_ALIGN_ATTRIBUTE __attribute__((aligned(4)))
#else
#define DATA_ALIGN_ATTRIBUTE
#endif

const unsigned char model_data[] DATA_ALIGN_ATTRIBUTE = {
	0x1c, 0x00, 0x00, 0x00, 0x54, 0x46, 0x4c, 0x33, 0x14, 0x00, 0x20, 0x00, 
	0x1c, 0x00, 0x18, 0x00, 0x14, 0x00, 0x10, 0x00, 0x0c, 0x00, 0x00, 0x00, 
	0x08, 0x00, 0x04, 0x00, 0x14, 0x00, 0x00, 0x00, 0x1c, 0x00, 0x00, 0x00, 
	0x90, 0x00, 0x00, 0x00, 0xe8, 0x00, 0x00, 0x00, 0xc4, 0x04, 0x00, 0x00, 
	0xd4, 0x04, 0x00, 0x00, 0xcc, 0x09, 0x00, 0x00, 0x03, 0x00, 0x00, 0x00, 
	0x01, 0x00, 0x00, 0x00, 0x10, 0x00, 0x00, 0x00, 0x00, 0x00, 0x0a, 0x00, 
	0x10, 0x00, 0x0c, 0x00, 0x08, 0x00, 0x04, 0x00, 0x0a, 0x00, 0x00, 0x00, 
	0x0c, 0x00, 0x00, 0x00, 0x1c, 0x00, 0x00, 0x00, 0x38, 0x00, 0x00, 0x00, 
	0x0f, 0x00, 0x00, 0x00, 0x73, 0x65, 0x72, 0x76, 0x69, 0x6e, 0x67, 0x5f, 
	0x64, 0x65, 0x66, 0x61, 0x75, 0x6c, 0x74, 0x00, 0x01, 0x00, 0x00, 0x00, 
	0x04, 0x00, 0x00, 0x00, 0x98, 0xff, 0xff, 0xff, 0x09, 0x00, 0x00, 0x00, 
	0x04, 0x00, 0x00, 0x00, 0x07, 0x00, 0x00, 0x00, 0x64, 0x65, 0x6e, 0x73, 
	0x65, 0x5f, 0x32, 0x00, 0x01, 0x00, 0x00, 0x00, 0x04, 0x00, 0x00, 0x00, 
	0x06, 0xfc, 0xff, 0xff, 0x04, 0x00, 0x00, 0x00, 0x0b, 0x00, 0x00, 0x00, 
	0x64, 0x65, 0x6e, 0x73, 0x65, 0x5f, 0x69, 0x6e, 0x70, 0x75, 0x74, 0x00, 
	0x02, 0x00, 0x00, 0x00, 0x34, 0x00, 0x00, 0x00, 0x04, 0x00, 0x00, 0x00, 
	0xdc, 0xff, 0xff, 0xff, 0x0c, 0x00, 0x00, 0x00, 0x04, 0x00, 0x00, 0x00, 
	0x13, 0x00, 0x00, 0x00, 0x43, 0x4f, 0x4e, 0x56, 0x45, 0x52, 0x53, 0x49, 
	0x4f, 0x4e, 0x5f, 0x4d, 0x45, 0x54, 0x41, 0x44, 0x41, 0x54, 0x41, 0x00, 
	0x08, 0x00, 0x0c, 0x00, 0x08, 0x00, 0x04, 0x00, 0x08, 0x00, 0x00, 0x00, 
	0x0b, 0x00, 0x00, 0x00, 0x04, 0x00, 0x00, 0x00, 0x13, 0x00, 0x00, 0x00, 
	0x6d, 0x69, 0x6e, 0x5f, 0x72, 0x75, 0x6e, 0x74, 0x69, 0x6d, 0x65, 0x5f, 
	0x76, 0x65, 0x72, 0x73, 0x69, 0x6f, 0x6e, 0x00, 0x0d, 0x00, 0x00, 0x00, 
	0xd8, 0x03, 0x00, 0x00, 0xd0, 0x03, 0x00, 0x00, 0x80, 0x03, 0x00, 0x00, 
	0x64, 0x03, 0x00, 0x00, 0x34, 0x03, 0x00, 0x00, 0x04, 0x03, 0x00, 0x00, 
	0xf4, 0x00, 0x00, 0x00, 0xa4, 0x00, 0x00, 0x00, 0x9c, 0x00, 0x00, 0x00, 
	0x94, 0x00, 0x00, 0x00, 0x8c, 0x00, 0x00, 0x00, 0x6c, 0x00, 0x00, 0x00, 
	0x04, 0x00, 0x00, 0x00, 0xb2, 0xfc, 0xff, 0xff, 0x04, 0x00, 0x00, 0x00, 
	0x58, 0x00, 0x00, 0x00, 0x0c, 0x00, 0x00, 0x00, 0x08, 0x00, 0x0e, 0x00, 
	0x08, 0x00, 0x04, 0x00, 0x08, 0x00, 0x00, 0x00, 0x10, 0x00, 0x00, 0x00, 
	0x28, 0x00, 0x00, 0x00, 0x00, 0x00, 0x06, 0x00, 0x08, 0x00, 0x04, 0x00, 
	0x06, 0x00, 0x00, 0x00, 0x04, 0x00, 0x00, 0x00, 0x01, 0x00, 0x00, 0x00, 
	0xea, 0x03, 0x00, 0x00, 0x00, 0x00, 0x0a, 0x00, 0x10, 0x00, 0x0c, 0x00, 
	0x08, 0x00, 0x04, 0x00, 0x0a, 0x00, 0x00, 0x00, 0x02, 0x00, 0x00, 0x00, 
	0x02, 0x00, 0x00, 0x00, 0x04, 0x00, 0x00, 0x00, 0x06, 0x00, 0x00, 0x00, 
	0x32, 0x2e, 0x31, 0x32, 0x2e, 0x30, 0x00, 0x00, 0x16, 0xfd, 0xff, 0xff, 
	0x04, 0x00, 0x00, 0x00, 0x10, 0x00, 0x00, 0x00, 0x31, 0x2e, 0x35, 0x2e, 
	0x30, 0x00, 0x00, 0x00, 0x00, 0x00, 0x00, 0x00, 0x00, 0x00, 0x00, 0x00, 
	0x00, 0xf8, 0xff, 0xff, 0x04, 0xf8, 0xff, 0xff, 0x08, 0xf8, 0xff, 0xff, 
	0x3e, 0xfd, 0xff, 0xff, 0x04, 0x00, 0x00, 0x00, 0x40, 0x00, 0x00, 0x00, 
	0xd0, 0xa5, 0x54, 0x3e, 0xc5, 0x54, 0x9c, 0xbd, 0x87, 0x0a, 0xcb, 0xbe, 
	0xde, 0x7f, 0x12, 0xbe, 0x2c, 0xb5, 0x90, 0x3e, 0x90, 0xf7, 0x8d, 0xbf, 
	0x8c, 0x0d, 0x07, 0xbf, 0x5f, 0x90, 0xdd, 0xbe, 0x7f, 0xbf, 0x13, 0xbf, 
	0x45, 0x82, 0xf4, 0xbe, 0xd7, 0xc7, 0x85, 0x3e, 0xd0, 0xf7, 0x6c, 0x3e, 
	0x83, 0x36, 0x18, 0xbf, 0xa1, 0xd6, 0x89, 0x3e, 0x2c, 0x5a, 0x18, 0xbe, 
	0x07, 0x1e, 0x32, 0x3f, 0x8a, 0xfd, 0xff, 0xff, 0x04, 0x00, 0x00, 0x00, 
	0x00, 0x02, 0x00, 0x00, 0xb0, 0xd1, 0x75, 0xbe, 0xa0, 0xfa, 0x90, 0xbd, 
	0x98, 0x8a, 0x6a, 0xbe, 0xc0, 0x14, 0x63, 0xbe, 0x28, 0xe2, 0x3b, 0xbe, 
	0x14, 0xc1, 0x9d, 0xbe, 0xa0, 0xd3, 0xa2, 0x3e, 0x80, 0xb4, 0xdc, 0xbe, 
	0xda, 0xcf, 0xc6, 0x3e, 0x7d, 0xf8, 0xb4, 0xbe, 0x7b, 0x9c, 0x8a, 0x3e, 
	0x00, 0xf0, 0x56, 0xbc, 0x13, 0xcb, 0x9e, 0x3d, 0x58, 0xe8, 0x31, 0x3e, 
	0x88, 0xda, 0xa0, 0xbe, 0x34, 0x98, 0xf0, 0xbe, 0xf9, 0x54, 0xbc, 0x3e, 
	0x56, 0x0d, 0x61, 0xbe, 0x0f, 0x4d, 0x3a, 0xbd, 0x40, 0x13, 0xd3, 0x3d, 
	0x3b, 0xbd, 0x5c, 0x3e, 0x00, 0xca, 0x34, 0x3b, 0xa8, 0xf6, 0x6e, 0xbe, 
	0xf0, 0x7b, 0x28, 0xbe, 0xf6, 0x9a, 0x13, 0xbc, 0x99, 0xd9, 0x97, 0x3e, 
	0xf2, 0x75, 0x1a, 0x3f, 0x40, 0xd5, 0xda, 0x3c, 0x02, 0x6d, 0x6e, 0x3d, 
	0xb0, 0xe2, 0x43, 0xbe, 0x3c, 0x98, 0xc2, 0x3e, 0xf4, 0x90, 0xed, 0x3e, 
	0x38, 0x05, 0x17, 0xbe, 0x4c, 0x9f, 0xc0, 0xbe, 0x88, 0xf5, 0xcc, 0x3e, 
	0x64, 0xaa, 0xce, 0xbe, 0xc8, 0x1d, 0xb3, 0xbe, 0x7c, 0x7e, 0xe8, 0x3e, 
	0x68, 0x39, 0x62, 0x3e, 0x38, 0xdc, 0x73, 0xbe, 0xd7, 0xa6, 0xa5, 0xbe, 
	0xb3, 0xe4, 0x7f, 0xbf, 0x88, 0x7b, 0xab, 0xbe, 0xf0, 0x8c, 0xda, 0x3e, 
	0x66, 0x47, 0x09, 0x3f, 0x30, 0x96, 0x9f, 0x3d, 0x58, 0x74, 0x60, 0x3e, 
	0xf0, 0x77, 0xeb, 0x3e, 0x6b, 0x26, 0x08, 0x3d, 0x32, 0xab, 0x35, 0x3e, 
	0x11, 0x83, 0xea, 0xbd, 0x14, 0x1e, 0xbb, 0x3e, 0x92, 0xb5, 0x9b, 0x3c, 
	0x84, 0x7e, 0xb2, 0xbe, 0x58, 0x0f, 0x4c, 0x3e, 0x80, 0x8f, 0x26, 0xbe, 
	0x5e, 0x80, 0xc0, 0x3e, 0xd1, 0x8f, 0xb1, 0x3e, 0x42, 0x50, 0xf3, 0x3d, 
	0xa4, 0x76, 0xd5, 0x3e, 0xe5, 0xda, 0x29, 0xbe, 0x28, 0xca, 0xed, 0xbe, 
	0xf8, 0x74, 0x35, 0x3e, 0x80, 0x81, 0x5d, 0xbc, 0x62, 0x48, 0xc3, 0x3d, 
	0xe9, 0x16, 0x84, 0x3e, 0xae, 0xbb, 0x00, 0xbe, 0xd8, 0x75, 0xa8, 0xbe, 
	0xc5, 0x22, 0x8a, 0xbe, 0xd0, 0xc7, 0xe8, 0xbd, 0x20, 0xde, 0x14, 0x3d, 
	0x68, 0xce, 0x8e, 0xbe, 0x8a, 0xf5, 0x70, 0x3e, 0xb9, 0x79, 0x7a, 0xbd, 
	0xf4, 0x57, 0xd9, 0x3e, 0x7c, 0xbe, 0xad, 0x3e, 0xe1, 0x3d, 0xd4, 0x3d, 
	0x00, 0x35, 0xe3, 0x3d, 0xd8, 0x8d, 0xfa, 0xbe, 0x3c, 0xdc, 0xed, 0xbe, 
	0x20, 0x0b, 0x55, 0x3e, 0x3f, 0xfa, 0x62, 0x3e, 0x8e, 0x4a, 0xa5, 0xbe, 
	0x3c, 0x19, 0xba, 0x3e, 0xf2, 0x42, 0x03, 0x3f, 0x60, 0x57, 0x20, 0xbe, 
	0x9c, 0xc6, 0xc7, 0x3e, 0xc0, 0x69, 0x22, 0x3e, 0xe4, 0xbf, 0xe4, 0xbe, 
	0x74, 0xd5, 0xbd, 0xbe, 0xb8, 0x15, 0x1d, 0x3e, 0xac, 0xf2, 0xfe, 0x3e, 
	0x68, 0xf3, 0x74, 0x3e, 0x70, 0x40, 0xc0, 0xbe, 0x00, 0x44, 0x54, 0x3d, 
	0xd8, 0x7a, 0xde, 0x3e, 0xe9, 0x3b, 0x5a, 0x3e, 0x5b, 0x30, 0x6d, 0x3d, 
	0x38, 0xf4, 0xdc, 0x3e, 0xc0, 0x3a, 0xbe, 0x3e, 0x86, 0xf1, 0x65, 0xbe, 
	0x68, 0xbe, 0x02, 0xbe, 0x28, 0xbd, 0xac, 0xbe, 0x88, 0x8b, 0x30, 0xbe, 
	0x76, 0xba, 0x22, 0x3e, 0xeb, 0x10, 0xc6, 0x3d, 0x02, 0xe7, 0xf6, 0xbe, 
	0x80, 0xea, 0x87, 0xbe, 0x38, 0xc6, 0x9d, 0xbe, 0xd8, 0x40, 0x45, 0x3e, 
	0x00, 0x78, 0x21, 0xba, 0x40, 0x28, 0x2c, 0xbe, 0x10, 0x36, 0xe1, 0xbd, 
	0x70, 0xda, 0x4c, 0xbe, 0xac, 0x31, 0xf1, 0xbe, 0x18, 0x8b, 0xac, 0xbe, 
	0x40, 0xb2, 0xd5, 0xbd, 0x10, 0x88, 0xfb, 0x3e, 0xf8, 0xae, 0xff, 0xbe, 
	0x2c, 0x29, 0xf9, 0xbe, 0xa6, 0x31, 0xc0, 0xba, 0x0c, 0xc0, 0xb8, 0x3e, 
	0x04, 0xed, 0x02, 0xbf, 0x40, 0x05, 0x87, 0xbd, 0x75, 0x61, 0x45, 0xbd, 
	0x90, 0x21, 0x85, 0x3d, 0x20, 0x29, 0x8d, 0xbe, 0xa0, 0x40, 0x28, 0x3e, 
	0x96, 0xff, 0xff, 0xff, 0x04, 0x00, 0x00, 0x00, 0x20, 0x00, 0x00, 0x00, 
	0x7a, 0xd0, 0x15, 0x3f, 0x85, 0xf5, 0xdf, 0x3e, 0x36, 0x60, 0xa9, 0x3d, 
	0xbd, 0x7f, 0x1d, 0xbf, 0xfe, 0x32, 0x4f, 0x3c, 0x20, 0xc3, 0x43, 0xbd, 
	0x44, 0xa8, 0x47, 0xbf, 0x12, 0x28, 0x98, 0xbe, 0xc2, 0xff, 0xff, 0xff, 
	0x04, 0x00, 0x00, 0x00, 0x20, 0x00, 0x00, 0x00, 0x94, 0x25, 0x09, 0xbe, 
	0x4c, 0x03, 0x9c, 0xba, 0xa4, 0x40, 0xcd, 0xbd, 0x00, 0x00, 0x00, 0x00, 
	0x59, 0xec, 0x3a, 0x3e, 0x00, 0x00, 0x00, 0x00, 0x00, 0x00, 0x00, 0x00, 
	0x00, 0x00, 0x00, 0x00, 0xee, 0xff, 0xff, 0xff, 0x04, 0x00, 0x00, 0x00, 
	0x04, 0x00, 0x00, 0x00, 0xbe, 0xe2, 0x91, 0x3e, 0x00, 0x00, 0x06, 0x00, 
	0x08, 0x00, 0x04, 0x00, 0x06, 0x00, 0x00, 0x00, 0x04, 0x00, 0x00, 0x00, 
	0x40, 0x00, 0x00, 0x00, 0x00, 0x00, 0x00, 0x00, 0x41, 0xcc, 0x32, 0xbd, 
	0xf8, 0x6d, 0xff, 0xbd, 0xb9, 0x26, 0x3a, 0xbe, 0x00, 0x00, 0x00, 0x00, 
	0xb2, 0x04, 0xd0, 0x3e, 0xb9, 0xa6, 0xf6, 0xbd, 0x90, 0x9e, 0xbc, 0xbe, 
	0xd0, 0x96, 0x11, 0xbe, 0x39, 0x56, 0xee, 0xbd, 0xd3, 0xcd, 0x8d, 0x3e, 
	0xaa, 0x73, 0x53, 0xbd, 0x34, 0xe4, 0xc7, 0xbd, 0x04, 0x7e, 0x8e, 0x3e, 
	0x00, 0x00, 0x00, 0x00, 0x81, 0x79, 0x90, 0x3e, 0x20, 0xfb, 0xff, 0xff, 
	0x24, 0xfb, 0xff, 0xff, 0x0f, 0x00, 0x00, 0x00, 0x4d, 0x4c, 0x49, 0x52, 
	0x20, 0x43, 0x6f, 0x6e, 0x76, 0x65, 0x72, 0x74, 0x65, 0x64, 0x2e, 0x00, 
	0x01, 0x00, 0x00, 0x00, 0x14, 0x00, 0x00, 0x00, 0x00, 0x00, 0x0e, 0x00, 
	0x18, 0x00, 0x14, 0x00, 0x10, 0x00, 0x0c, 0x00, 0x08, 0x00, 0x04, 0x00, 
	0x0e, 0x00, 0x00, 0x00, 0x14, 0x00, 0x00, 0x00, 0x1c, 0x00, 0x00, 0x00, 
	0xd8, 0x00, 0x00, 0x00, 0xdc, 0x00, 0x00, 0x00, 0xe0, 0x00, 0x00, 0x00, 
	0x04, 0x00, 0x00, 0x00, 0x6d, 0x61, 0x69, 0x6e, 0x00, 0x00, 0x00, 0x00, 
	0x03, 0x00, 0x00, 0x00, 0x80, 0x00, 0x00, 0x00, 0x38, 0x00, 0x00, 0x00, 
	0x04, 0x00, 0x00, 0x00, 0x9a, 0xff, 0xff, 0xff, 0x10, 0x00, 0x00, 0x00, 
	0x00, 0x00, 0x00, 0x08, 0x0c, 0x00, 0x00, 0x00, 0x10, 0x00, 0x00, 0x00, 
	0x9c, 0xfb, 0xff, 0xff, 0x01, 0x00, 0x00, 0x00, 0x09, 0x00, 0x00, 0x00, 
	0x03, 0x00, 0x00, 0x00, 0x08, 0x00, 0x00, 0x00, 0x06, 0x00, 0x00, 0x00, 
	0x02, 0x00, 0x00, 0x00, 0xca, 0xff, 0xff, 0xff, 0x10, 0x00, 0x00, 0x00, 
	0x00, 0x00, 0x00, 0x08, 0x10, 0x00, 0x00, 0x00, 0x14, 0x00, 0x00, 0x00, 
	0xba, 0xff, 0xff, 0xff, 0x00, 0x00, 0x00, 0x01, 0x01, 0x00, 0x00, 0x00, 
	0x08, 0x00, 0x00, 0x00, 0x03, 0x00, 0x00, 0x00, 0x07, 0x00, 0x00, 0x00, 
	0x05, 0x00, 0x00, 0x00, 0x01, 0x00, 0x00, 0x00, 0x00, 0x00, 0x0e, 0x00, 
	0x16, 0x00, 0x00, 0x00, 0x10, 0x00, 0x0c, 0x00, 0x0b, 0x00, 0x04, 0x00, 
	0x0e, 0x00, 0x00, 0x00, 0x18, 0x00, 0x00, 0x00, 0x00, 0x00, 0x00, 0x08, 
	0x18, 0x00, 0x00, 0x00, 0x1c, 0x00, 0x00, 0x00, 0x00, 0x00, 0x06, 0x00, 
	0x08, 0x00, 0x07, 0x00, 0x06, 0x00, 0x00, 0x00, 0x00, 0x00, 0x00, 0x01, 
	0x01, 0x00, 0x00, 0x00, 0x07, 0x00, 0x00, 0x00, 0x03, 0x00, 0x00, 0x00, 
	0x00, 0x00, 0x00, 0x00, 0x04, 0x00, 0x00, 0x00, 0x03, 0x00, 0x00, 0x00, 
	0x01, 0x00, 0x00, 0x00, 0x09, 0x00, 0x00, 0x00, 0x01, 0x00, 0x00, 0x00, 
	0x00, 0x00, 0x00, 0x00, 0x0a, 0x00, 0x00, 0x00, 0x8c, 0x03, 0x00, 0x00, 
	0x1c, 0x03, 0x00, 0x00, 0xac, 0x02, 0x00, 0x00, 0x58, 0x02, 0x00, 0x00, 
	0x10, 0x02, 0x00, 0x00, 0xc4, 0x01, 0x00, 0x00, 0x78, 0x01, 0x00, 0x00, 
	0xf0, 0x00, 0x00, 0x00, 0x60, 0x00, 0x00, 0x00, 0x04, 0x00, 0x00, 0x00, 
	0xb2, 0xfc, 0xff, 0xff, 0x00, 0x00, 0x00, 0x01, 0x14, 0x00, 0x00, 0x00, 
	0x1c, 0x00, 0x00, 0x00, 0x1c, 0x00, 0x00, 0x00, 0x0a, 0x00, 0x00, 0x00, 
	0x34, 0x00, 0x00, 0x00, 0x02, 0x00, 0x00, 0x00, 0xff, 0xff, 0xff, 0xff, 
	0x01, 0x00, 0x00, 0x00, 0x9c, 0xfc, 0xff, 0xff, 0x19, 0x00, 0x00, 0x00, 
	0x53, 0x74, 0x61, 0x74, 0x65, 0x66, 0x75, 0x6c, 0x50, 0x61, 0x72, 0x74, 
	0x69, 0x74, 0x69, 0x6f, 0x6e, 0x65, 0x64, 0x43, 0x61, 0x6c, 0x6c, 0x3a, 
	0x30, 0x00, 0x00, 0x00, 0x02, 0x00, 0x00, 0x00, 0x01, 0x00, 0x00, 0x00, 
	0x01, 0x00, 0x00, 0x00, 0x0a, 0xfd, 0xff, 0xff, 0x00, 0x00, 0x00, 0x01, 
	0x14, 0x00, 0x00, 0x00, 0x1c, 0x00, 0x00, 0x00, 0x1c, 0x00, 0x00, 0x00, 
	0x09, 0x00, 0x00, 0x00, 0x68, 0x00, 0x00, 0x00, 0x02, 0x00, 0x00, 0x00, 
	0xff, 0xff, 0xff, 0xff, 0x10, 0x00, 0x00, 0x00, 0xf4, 0xfc, 0xff, 0xff, 
	0x4c, 0x00, 0x00, 0x00, 0x73, 0x65, 0x71, 0x75, 0x65, 0x6e, 0x74, 0x69, 
	0x61, 0x6c, 0x2f, 0x64, 0x65, 0x6e, 0x73, 0x65, 0x5f, 0x31, 0x2f, 0x4d, 
	0x61, 0x74, 0x4d, 0x75, 0x6c, 0x3b, 0x73, 0x65, 0x71, 0x75, 0x65, 0x6e, 
	0x74, 0x69, 0x61, 0x6c, 0x2f, 0x64, 0x65, 0x6e, 0x73, 0x65, 0x5f, 0x31, 
	0x2f, 0x52, 0x65, 0x6c, 0x75, 0x3b, 0x73, 0x65, 0x71, 0x75, 0x65, 0x6e, 
	0x74, 0x69, 0x61, 0x6c, 0x2f, 0x64, 0x65, 0x6e, 0x73, 0x65, 0x5f, 0x31, 
	0x2f, 0x42, 0x69, 0x61, 0x73, 0x41, 0x64, 0x64, 0x00, 0x00, 0x00, 0x00, 
	0x02, 0x00, 0x00, 0x00, 0x01, 0x00, 0x00, 0x00, 0x10, 0x00, 0x00, 0x00, 
	0x96, 0xfd, 0xff, 0xff, 0x00, 0x00, 0x00, 0x01, 0x14, 0x00, 0x00, 0x00, 
	0x1c, 0x00, 0x00, 0x00, 0x1c, 0x00, 0x00, 0x00, 0x08, 0x00, 0x00, 0x00, 
	0x60, 0x00, 0x00, 0x00, 0x02, 0x00, 0x00, 0x00, 0xff, 0xff, 0xff, 0xff, 
	0x08, 0x00, 0x00, 0x00, 0x80, 0xfd, 0xff, 0xff, 0x46, 0x00, 0x00, 0x00, 
	0x73, 0x65, 0x71, 0x75, 0x65, 0x6e, 0x74, 0x69, 0x61, 0x6c, 0x2f, 0x64, 
	0x65, 0x6e, 0x73, 0x65, 0x2f, 0x4d, 0x61, 0x74, 0x4d, 0x75, 0x6c, 0x3b, 
	0x73, 0x65, 0x71, 0x75, 0x65, 0x6e, 0x74, 0x69, 0x61, 0x6c, 0x2f, 0x64, 
	0x65, 0x6e, 0x73, 0x65, 0x2f, 0x52, 0x65, 0x6c, 0x75, 0x3b, 0x73, 0x65, 
	0x71, 0x75, 0x65, 0x6e, 0x74, 0x69, 0x61, 0x6c, 0x2f, 0x64, 0x65, 0x6e, 
	0x73, 0x65, 0x2f, 0x42, 0x69, 0x61, 0x73, 0x41, 0x64, 0x64, 0x00, 0x00, 
	0x02, 0x00, 0x00, 0x00, 0x01, 0x00, 0x00, 0x00, 0x08, 0x00, 0x00, 0x00, 
	0x86, 0xfe, 0xff, 0xff, 0x00, 0x00, 0x00, 0x01, 0x10, 0x00, 0x00, 0x00, 
	0x10, 0x00, 0x00, 0x00, 0x07, 0x00, 0x00, 0x00, 0x28, 0x00, 0x00, 0x00, 
	0xf4, 0xfd, 0xff, 0xff, 0x19, 0x00, 0x00, 0x00, 0x73, 0x65, 0x71, 0x75, 
	0x65, 0x6e, 0x74, 0x69, 0x61, 0x6c, 0x2f, 0x64, 0x65, 0x6e, 0x73, 0x65, 
	0x5f, 0x32, 0x2f, 0x4d, 0x61, 0x74, 0x4d, 0x75, 0x6c, 0x00, 0x00, 0x00, 
	0x02, 0x00, 0x00, 0x00, 0x01, 0x00, 0x00, 0x00, 0x10, 0x00, 0x00, 0x00, 
	0xce, 0xfe, 0xff, 0xff, 0x00, 0x00, 0x00, 0x01, 0x10, 0x00, 0x00, 0x00, 
	0x10, 0x00, 0x00, 0x00, 0x06, 0x00, 0x00, 0x00, 0x28, 0x00, 0x00, 0x00, 
	0x3c, 0xfe, 0xff, 0xff, 0x19, 0x00, 0x00, 0x00, 0x73, 0x65, 0x71, 0x75, 
	0x65, 0x6e, 0x74, 0x69, 0x61, 0x6c, 0x2f, 0x64, 0x65, 0x6e, 0x73, 0x65, 
	0x5f, 0x31, 0x2f, 0x4d, 0x61, 0x74, 0x4d, 0x75, 0x6c, 0x00, 0x00, 0x00, 
	0x02, 0x00, 0x00, 0x00, 0x10, 0x00, 0x00, 0x00, 0x08, 0x00, 0x00, 0x00, 
	0x16, 0xff, 0xff, 0xff, 0x00, 0x00, 0x00, 0x01, 0x10, 0x00, 0x00, 0x00, 
	0x10, 0x00, 0x00, 0x00, 0x05, 0x00, 0x00, 0x00, 0x24, 0x00, 0x00, 0x00, 
	0x84, 0xfe, 0xff, 0xff, 0x17, 0x00, 0x00, 0x00, 0x73, 0x65, 0x71, 0x75, 
	0x65, 0x6e, 0x74, 0x69, 0x61, 0x6c, 0x2f, 0x64, 0x65, 0x6e, 0x73, 0x65, 
	0x2f, 0x4d, 0x61, 0x74, 0x4d, 0x75, 0x6c, 0x00, 0x02, 0x00, 0x00, 0x00, 
	0x08, 0x00, 0x00, 0x00, 0x01, 0x00, 0x00, 0x00, 0x5a, 0xff, 0xff, 0xff, 
	0x00, 0x00, 0x00, 0x01, 0x10, 0x00, 0x00, 0x00, 0x10, 0x00, 0x00, 0x00, 
	0x04, 0x00, 0x00, 0x00, 0x34, 0x00, 0x00, 0x00, 0xc8, 0xfe, 0xff, 0xff, 
	0x27, 0x00, 0x00, 0x00, 0x73, 0x65, 0x71, 0x75, 0x65, 0x6e, 0x74, 0x69, 
	0x61, 0x6c, 0x2f, 0x64, 0x65, 0x6e, 0x73, 0x65, 0x2f, 0x42, 0x69, 0x61, 
	0x73, 0x41, 0x64, 0x64, 0x2f, 0x52, 0x65, 0x61, 0x64, 0x56, 0x61, 0x72, 
	0x69, 0x61, 0x62, 0x6c, 0x65, 0x4f, 0x70, 0x00, 0x01, 0x00, 0x00, 0x00, 
	0x08, 0x00, 0x00, 0x00, 0xaa, 0xff, 0xff, 0xff, 0x00, 0x00, 0x00, 0x01, 
	0x10, 0x00, 0x00, 0x00, 0x10, 0x00, 0x00, 0x00, 0x03, 0x00, 0x00, 0x00, 
	0x38, 0x00, 0x00, 0x00, 0x18, 0xff, 0xff, 0xff, 0x29, 0x00, 0x00, 0x00, 
	0x73, 0x65, 0x71, 0x75, 0x65, 0x6e, 0x74, 0x69, 0x61, 0x6c, 0x2f, 0x64, 
	0x65, 0x6e, 0x73, 0x65, 0x5f, 0x32, 0x2f, 0x42, 0x69, 0x61, 0x73, 0x41, 
	0x64, 0x64, 0x2f, 0x52, 0x65, 0x61, 0x64, 0x56, 0x61, 0x72, 0x69, 0x61, 
	0x62, 0x6c, 0x65, 0x4f, 0x70, 0x00, 0x00, 0x00, 0x01, 0x00, 0x00, 0x00, 
	0x01, 0x00, 0x00, 0x00, 0x00, 0x00, 0x16, 0x00, 0x18, 0x00, 0x14, 0x00, 
	0x00, 0x00, 0x10, 0x00, 0x0c, 0x00, 0x08, 0x00, 0x00, 0x00, 0x00, 0x00, 
	0x00, 0x00, 0x07, 0x00, 0x16, 0x00, 0x00, 0x00, 0x00, 0x00, 0x00, 0x01, 
	0x10, 0x00, 0x00, 0x00, 0x10, 0x00, 0x00, 0x00, 0x02, 0x00, 0x00, 0x00, 
	0x38, 0x00, 0x00, 0x00, 0x84, 0xff, 0xff, 0xff, 0x29, 0x00, 0x00, 0x00, 
	0x73, 0x65, 0x71, 0x75, 0x65, 0x6e, 0x74, 0x69, 0x61, 0x6c, 0x2f, 0x64, 
	0x65, 0x6e, 0x73, 0x65, 0x5f, 0x31, 0x2f, 0x42, 0x69, 0x61, 0x73, 0x41, 
	0x64, 0x64, 0x2f, 0x52, 0x65, 0x61, 0x64, 0x56, 0x61, 0x72, 0x69, 0x61, 
	0x62, 0x6c, 0x65, 0x4f, 0x70, 0x00, 0x00, 0x00, 0x01, 0x00, 0x00, 0x00, 
	0x10, 0x00, 0x00, 0x00, 0x00, 0x00, 0x16, 0x00, 0x1c, 0x00, 0x18, 0x00, 
	0x00, 0x00, 0x14, 0x00, 0x10, 0x00, 0x0c, 0x00, 0x00, 0x00, 0x00, 0x00, 
	0x08, 0x00, 0x07, 0x00, 0x16, 0x00, 0x00, 0x00, 0x00, 0x00, 0x00, 0x01, 
	0x14, 0x00, 0x00, 0x00, 0x20, 0x00, 0x00, 0x00, 0x20, 0x00, 0x00, 0x00, 
	0x01, 0x00, 0x00, 0x00, 0x3c, 0x00, 0x00, 0x00, 0x02, 0x00, 0x00, 0x00, 
	0xff, 0xff, 0xff, 0xff, 0x01, 0x00, 0x00, 0x00, 0x04, 0x00, 0x04, 0x00, 
	0x04, 0x00, 0x00, 0x00, 0x1d, 0x00, 0x00, 0x00, 0x73, 0x65, 0x72, 0x76, 
	0x69, 0x6e, 0x67, 0x5f, 0x64, 0x65, 0x66, 0x61, 0x75, 0x6c, 0x74, 0x5f, 
	0x64, 0x65, 0x6e, 0x73, 0x65, 0x5f, 0x69, 0x6e, 0x70, 0x75, 0x74, 0x3a, 
	0x30, 0x00, 0x00, 0x00, 0x02, 0x00, 0x00, 0x00, 0x01, 0x00, 0x00, 0x00, 
	0x01, 0x00, 0x00, 0x00, 0x01, 0x00, 0x00, 0x00, 0x10, 0x00, 0x00, 0x00, 
	0x0c, 0x00, 0x0c, 0x00, 0x0b, 0x00, 0x00, 0x00, 0x00, 0x00, 0x04, 0x00, 
	0x0c, 0x00, 0x00, 0x00, 0x09, 0x00, 0x00, 0x00, 0x00, 0x00, 0x00, 0x09
};
const int model_data_len = 2592;